<blank> 0
<s> 1
</s> 2
<OOV> 3
<gbg> 4
the 5
and 6
to 7
of 8
a 9
i 10
that 11
you 12
in 13
is 14
it 15
we 16
for 17
so 18
this 19
have 20
on 21
are 22
was 23
with 24
not 25
be 26
as 27
but 28
at 29
they 30
he 31
can 32
do 33
what 34
or 35
one 36
know 37
an 38
like 39
all 40
if 41
re@@ 42
from 43
my 44
there 45
me 46
about 47
will 48
our 49
your 50
just 51
by 52
had 53
his 54
how 55
would 56
think 57
which 58
when 59
very 60
then 61
d@@ 62
s 63
more 64
some 65
in@@ 66
ed 67
were 68
it's 69
out 70
s@@ 71
up 72
going 73
get 74
t@@ 75
a@@ 76
people 77
their 78
now 79
p@@ 80
e 81
because 82
them 83
time 84
she 85
her 86
has 87
ing 88
no 89
t 90
k@@ 91
who 92
us 93
g@@ 94
really 95
b@@ 96
been 97
go 98
these 99
see 100
also 101
here 102
o@@ 103
right 104
well 105
en@@ 106
es 107
want 108
am 109
e@@ 110
m 111
way 112
li@@ 113
where 114
could 115
i@@ 116
other 117
two 118
o 119
di@@ 120
said 121
y@@ 122
un@@ 123
an@@ 124
yeah 125
m@@ 126
those 127
er 128
into 129
ted 130
him 131
f@@ 132
good 133
d 134
c 135
ti@@ 136
ts 137
p 138
con@@ 139
c@@ 140
ri@@ 141
don't 142
any 143
that's 144
did 145
al@@ 146
ds 147
ate 148
able 149
make 150
v@@ 151
i'm 152
n@@ 153
y 154
u@@ 155
much 156
ma@@ 157
need 158
ro@@ 159
say 160
al 161
l@@ 162
ly 163
de@@ 164
things 165
lo@@ 166
work 167
okay 168
st 169
w@@ 170
back 171
take 172
's 173
over 174
new 175
tion 176
la@@ 177
ad@@ 178
it@@ 179
ar@@ 180
st@@ 181
than 182
day 183
little 184
ra@@ 185
po@@ 186
lot 187
three 188
its 189
only 190
-@@ 191
ca@@ 192
kind 193
g 194
l 195
ah 196
el@@ 197
many 198
h@@ 199
um 200
k 201
red 202
co@@ 203
n 204
should 205
ting 206
se 207
r@@ 208
ers 209
got 210
ated 211
er@@ 212
look 213
something 214
be@@ 215
th@@ 216
on@@ 217
mo@@ 218
pro@@ 219
man 220
ac@@ 221
pre@@ 222
through 223
come 224
first 225
ha@@ 226
or@@ 227
even 228
actually 229
se@@ 230
sh@@ 231
use 232
ex@@ 233
j@@ 234
tions 235
sp@@ 236
si@@ 237
ch@@ 238
before 239
ation 240
thing 241
being 242
bo@@ 243
again 244
may 245
great 246
down 247
after 248
thank 249
five 250
most 251
le@@ 252
ous 253
different 254
u 255
es@@ 256
r 257
as@@ 258
at@@ 259
sa@@ 260
ding 261
year 262
years 263
let 264
h 265
su@@ 266
four 267
mi@@ 268
ded 269
z@@ 270
b 271
ment 272
does 273
tell 274
why 275
still 276
ta@@ 277
pa@@ 278
yes 279
mean 280
ine 281
le 282
made 283
ent 284
put 285
uh 286
part 287
last 288
ho@@ 289
number 290
find 291
same 292
we're 293
no@@ 294
give 295
sure 296
might 297
to@@ 298
il@@ 299
1@@ 300
you're 301
dis@@ 302
long 303
end 304
place 305
point 306
next 307
please 308
doing 309
king 310
bu@@ 311
help 312
ab@@ 313
life 314
question 315
every 316
six 317
th 318
ve 319
per@@ 320
there's 321
room 322
too 323
mar@@ 324
en 325
ses 326
another 327
w 328
ke 329
pe@@ 330
bit 331
own 332
world 333
around 334
ter@@ 335
tive 336
x 337
sing 338
such 339
ck 340
is@@ 341
ru@@ 342
de 343
never 344
ance 345
ity 346
eight 347
talk 348
ter 349
min@@ 350
ur@@ 351
ally 352
com@@ 353
seven 354
twenty 355
ga@@ 356
nine 357
ks 358
important 359
off 360
today 361
school 362
ant 363
for@@ 364
me@@ 365
always 366
na@@ 367
ne@@ 368
show 369
ating 370
der 371
ments 372
im@@ 373
looking 374
vi@@ 375
tu@@ 376
hi@@ 377
course 378
hundred 379
led 380
te 381
ge@@ 382
les 383
sed 384
maybe 385
case 386
cu@@ 387
fi@@ 388
so@@ 389
oh 390
less 391
wa@@ 392
try 393
both 394
best 395
am@@ 396
done 397
tra@@ 398
set 399
pi@@ 400
par@@ 401
better 402
ever 403
car@@ 404
while 405
side 406
each 407
man@@ 408
mon@@ 409
ec@@ 410
must 411
change 412
son 413
came 414
sc@@ 415
gu@@ 416
fa@@ 417
ties 418
station 419
old 420
business 421
ke@@ 422
pu@@ 423
ors 424
sort 425
pri@@ 426
ings 427
em@@ 428
ty 429
ans 430
tri@@ 431
fe@@ 432
used 433
city 434
ea@@ 435
thought 436
har@@ 437
card 438
da@@ 439
house 440
el 441
went 442
road 443
hotel 444
bi@@ 445
te@@ 446
lu@@ 447
sts 448
having 449
x@@ 450
money 451
ble 452
inter@@ 453
age 454
sen@@ 455
state 456
den@@ 457
start 458
away 459
mp@@ 460
pl@@ 461
men@@ 462
ful 463
ju@@ 464
working 465
ali@@ 466
ir@@ 467
questions 468
2 469
big 470
person 471
home 472
few 473
ge 474
public 475
feel 476
sion 477
information 478
id 479
between 480
ten@@ 481
ling 482
love 483
ong 484
order 485
call 486
res 487
go@@ 488
already 489
do@@ 490
ged 491
als 492
ci@@ 493
lin@@ 494
found 495
op@@ 496
under 497
cha@@ 498
students 499
together 500
mu@@ 501
ver@@ 502
gi@@ 503
gra@@ 504
tic 505
ob@@ 506
ary 507
ger 508
sub@@ 509
cre@@ 510
free 511
ging 512
men 513
ges 514
cal 515
without 516
they're 517
ence 518
thousand 519
we@@ 520
sho@@ 521
land 522
the@@ 523
ons 524
ked 525
send 526
once 527
care 528
upon 529
he@@ 530
om@@ 531
data 532
du@@ 533
coming 534
gen@@ 535
name 536
est 537
called 538
quite 539
anything 540
ry 541
light 542
high 543
whether 544
1st 545
ved 546
sti@@ 547
ba@@ 548
health 549
can't 550
2@@ 551
ask 552
f 553
didn't 554
keep 555
community 556
tly 557
fact 558
ars 559
sta@@ 560
system 561
gre@@ 562
whole 563
jo@@ 564
within 565
believe 566
court 567
getting 568
sha@@ 569
line 570
ang 571
0 572
trying 573
water 574
food 575
ch 576
ni@@ 577
ves 578
far 579
qu@@ 580
zero 581
ce 582
ness 583
vo@@ 584
days 585
ying 586
fac@@ 587
everything 588
dec@@ 589
understand 590
family 591
gr@@ 592
ure 593
nothing 594
can@@ 595
ol@@ 596
ps 597
ay 598
col@@ 599
ic@@ 600
talking 601
tr@@ 602
open 603
over@@ 604
sur@@ 605
wi@@ 606
probably 607
sted 608
left 609
pla@@ 610
during 611
yet 612
et 613
example 614
making 615
government 616
ability 617
ters 618
ess 619
night 620
though 621
re 622
str@@ 623
ph@@ 624
ou@@ 625
says 626
wanted 627
support 628
sh 629
country 630
il 631
hand 632
service 633
seen 634
ul@@ 635
mind 636
ations 637
enough 638
ces 639
using 640
bar@@ 641
i've 642
ori@@ 643
ined 644
ls 645
shed 646
br@@ 647
gh@@ 648
took 649
ze 650
gs 651
live 652
ap@@ 653
saw 654
saying 655
move 656
times 657
tation 658
process 659
young 660
est@@ 661
problem 662
bur@@ 663
we've 664
small 665
3 666
idea 667
ari@@ 668
ger@@ 669
zed 670
hard 671
ice 672
god 673
means 674
hope 675
ven@@ 676
near 677
dy 678
ep@@ 679
dly 680
ship 681
sel@@ 682
price 683
dra@@ 684
read 685
against 686
5 687
forward 688
real 689
low 690
comes 691
children 692
bri@@ 693
pretty 694
ten 695
ren@@ 696
second 697
book 698
check 699
ya 700
face 701
top 702
company 703
program 704
cor@@ 705
moment 706
trans@@ 707
terms 708
area 709
experience 710
started 711
told 712
level 713
coun@@ 714
since 715
rec@@ 716
board 717
half 718
power 719
ton 720
asked 721
tre@@ 722
across 723
job 724
view 725
head 726
out@@ 727
ki@@ 728
ms 729
ates 730
fo@@ 731
pay 732
ways 733
form 734
char@@ 735
meeting 736
week 737
ev@@ 738
cen@@ 739
sorry 740
cal@@ 741
bro@@ 742
han@@ 743
heard 744
else 745
tional 746
future 747
fin@@ 748
later 749
ect 750
up@@ 751
ber@@ 752
action 753
hu@@ 754
indi@@ 755
lea@@ 756
hear 757
ve@@ 758
ones 759
sense 760
der@@ 761
ok 762
soon 763
lation 764
let's 765
often 766
continue 767
sal@@ 768
sin@@ 769
law 770
full 771
himself 772
student 773
research 774
thirty 775
i'll 776
ced 777
ning 778
given 779
market 780
cra@@ 781
sometimes 782
answer 783
ver 784
den 785
cap@@ 786
everyone 787
what's 788
based 789
least 790
cho@@ 791
group 792
war@@ 793
mil@@ 794
des 795
mat@@ 796
remember 797
social 798
states 799
thinking 800
morning 801
account 802
v 803
clear 804
under@@ 805
ants 806
pen@@ 807
building 808
ving 809
ag@@ 810
ft 811
ected 812
until 813
ite 814
bed 815
almost 816
someone 817
play 818
team 819
che@@ 820
hello 821
close 822
certain 823
particular 824
uni@@ 825
provide 826
he's 827
lat@@ 828
reason 829
fully 830
fied 831
tor 832
del@@ 833
taking 834
her@@ 835
act 836
mer@@ 837
possible 838
and@@ 839
matter 840
mister 841
stu@@ 842
space 843
story 844
phone 845
date 846
ed@@ 847
position 848
ici@@ 849
looked 850
women 851
plan 852
knew 853
bring 854
wor@@ 855
clo@@ 856
however 857
black 858
words 859
ste@@ 860
nice 861
wh@@ 862
issue 863
doesn't 864
ory 865
chi@@ 866
fl@@ 867
white 868
email 869
au@@ 870
cost 871
friend 872
ran@@ 873
table 874
front 875
imp@@ 876
walk 877
sent 878
ins 879
services 880
ff@@ 881
ago 882
ture 883
mental 884
cannot 885
become 886
share 887
past 888
park 889
others 890
guys 891
stuff 892
local 893
prin@@ 894
true 895
da 896
sy@@ 897
eyes 898
lar 899
proc@@ 900
couple 901
interesting 902
concession 903
project 904
human 905
town 906
dri@@ 907
sli@@ 908
tal@@ 909
large 910
ster 911
oun@@ 912
hea@@ 913
aff@@ 914
ard 915
ched 916
available 917
cr@@ 918
test 919
inten@@ 920
word 921
general 922
turn 923
rest 924
eri@@ 925
ders 926
along 927
child 928
either 929
education 930
resi@@ 931
shall 932
father 933
heart 934
product 935
bl@@ 936
ns 937
yed 938
comp@@ 939
med 940
known 941
happy 942
5@@ 943
sun@@ 944
makes 945
needs 946
ban@@ 947
ys 948
myself 949
minutes 950
tion@@ 951
ore 952
cat@@ 953
plan@@ 954
early 955
ty@@ 956
taken 957
thanks 958
pas@@ 959
wn 960
ck@@ 961
run 962
lan@@ 963
shi@@ 964
lar@@ 965
hold 966
ani@@ 967
exi@@ 968
key 969
4@@ 970
whatever 971
hon@@ 972
tle 973
university 974
center 975
singapore 976
deal 977
ad 978
office 979
present 980
hol@@ 981
ines 982
current 983
fore@@ 984
link 985
value 986
des@@ 987
tw@@ 988
cri@@ 989
opportunity 990
guess 991
cing 992
door 993
dent 994
rather 995
4 996
mr 997
cur@@ 998
history 999
everybody 1000
friends 1001
access 1002
na 1003
vir@@ 1004
leave 1005
inv@@ 1006
ned 1007
ser@@ 1008
air 1009
cause 1010
works 1011
united 1012
body 1013
yer 1014
3@@ 1015
strong 1016
learn 1017
national 1018
win@@ 1019
type 1020
certainly 1021
tes 1022
tran@@ 1023
basically 1024
bre@@ 1025
bra@@ 1026
learning 1027
issues 1028
tel@@ 1029
bad 1030
far@@ 1031
speak 1032
goes 1033
pped 1034
happened 1035
car 1036
woman 1037
especially 1038
stay 1039
yourself 1040
fri@@ 1041
fifty 1042
pr@@ 1043
happen 1044
off@@ 1045
mor@@ 1046
sions 1047
felt 1048
behind 1049
ic 1050
work@@ 1051
mother 1052
gave 1053
sive 1054
va@@ 1055
dan@@ 1056
appro@@ 1057
exc@@ 1058
dro@@ 1059
mis@@ 1060
ace 1061
pic@@ 1062
sk@@ 1063
row 1064
wait 1065
video 1066
ell 1067
staff 1068
months 1069
oper@@ 1070
sir 1071
regi@@ 1072
exactly 1073
hours 1074
list 1075
ited 1076
medi@@ 1077
scri@@ 1078
further 1079
science 1080
add 1081
several 1082
street 1083
z 1084
members 1085
sto@@ 1086
fu@@ 1087
create 1088
address 1089
perhaps 1090
dev@@ 1091
field 1092
buy 1093
themselves 1094
west 1095
um@@ 1096
bel@@ 1097
seeing 1098
ences 1099
development 1100
class 1101
nor@@ 1102
mp 1103
dom@@ 1104
ther@@ 1105
ens 1106
study 1107
stri@@ 1108
tain 1109
ye@@ 1110
interested 1111
els 1112
kids 1113
quality 1114
acy 1115
easy 1116
tors 1117
ely 1118
police 1119
miss 1120
cont@@ 1121
ently 1122
growth 1123
tial 1124
technology 1125
ward 1126
itself 1127
ale 1128
exp@@ 1129
val@@ 1130
areas 1131
fil@@ 1132
private 1133
restaurant 1134
suff@@ 1135
deli@@ 1136
forty 1137
ner 1138
amount 1139
quarter 1140
seems 1141
dre@@ 1142
fra@@ 1143
ill 1144
00 1145
shing 1146
descri@@ 1147
att@@ 1148
cations 1149
american 1150
stre@@ 1151
stan@@ 1152
ative 1153
stop 1154
inf@@ 1155
ster@@ 1156
san@@ 1157
ber 1158
sting 1159
stra@@ 1160
meet 1161
game 1162
focus 1163
respon@@ 1164
build 1165
dollars 1166
pan@@ 1167
fer@@ 1168
wing 1169
wrong 1170
fla@@ 1171
brought 1172
model 1173
lower 1174
evidence 1175
interest 1176
ously 1177
mentioned 1178
we'll 1179
offer 1180
sible 1181
war 1182
speci@@ 1183
hor@@ 1184
you've 1185
ator 1186
short 1187
gone 1188
6@@ 1189
including 1190
per 1191
beautiful 1192
living 1193
our@@ 1194
cul@@ 1195
y's 1196
looks 1197
hi 1198
ear@@ 1199
tan 1200
8@@ 1201
nature 1202
wat@@ 1203
nineteen 1204
ches 1205
tary 1206
doctor 1207
late 1208
among 1209
bank 1210
gar@@ 1211
ley 1212
son@@ 1213
church 1214
institu@@ 1215
term 1216
ining 1217
rela@@ 1218
site 1219
picture 1220
lost 1221
somebody 1222
control 1223
products 1224
all@@ 1225
tor@@ 1226
met 1227
south 1228
cases 1229
tives 1230
ker 1231
high@@ 1232
gro@@ 1233
gh 1234
single 1235
hands 1236
wo@@ 1237
ats 1238
hy@@ 1239
obviously 1240
language 1241
president 1242
page 1243
posed 1244
art 1245
drive 1246
gets 1247
wel@@ 1248
- 1249
common 1250
ism 1251
ready 1252
knowledge 1253
outside 1254
conc@@ 1255
ss 1256
college 1257
ang@@ 1258
por@@ 1259
report 1260
eng 1261
gui@@ 1262
energy 1263
fire 1264
thy 1265
fy 1266
size 1267
'@@ 1268
ball 1269
welcome 1270
disa@@ 1271
higher 1272
difficult 1273
online 1274
emp@@ 1275
af@@ 1276
seemed 1277
wan@@ 1278
step 1279
produc@@ 1280
ators 1281
ta 1282
repor@@ 1283
hour 1284
don@@ 1285
impact 1286
results 1287
ben@@ 1288
pe 1289
6 1290
situation 1291
rooms 1292
ma 1293
north 1294
cks 1295
eff@@ 1296
month 1297
ics 1298
je@@ 1299
dr@@ 1300
reach 1301
compli@@ 1302
ws 1303
ground 1304
specific 1305
7@@ 1306
centre 1307
appli@@ 1308
represen@@ 1309
hum@@ 1310
box 1311
policy 1312
turned 1313
yers 1314
cro@@ 1315
ll@@ 1316
hand@@ 1317
ies 1318
watch 1319
rac@@ 1320
thre@@ 1321
nor 1322
death 1323
force 1324
continu@@ 1325
news 1326
ents 1327
decision 1328
parents 1329
moving 1330
green 1331
gue 1332
stor@@ 1333
wish 1334
john 1335
sum@@ 1336
began 1337
district 1338
disp@@ 1339
impro@@ 1340
gener@@ 1341
zing 1342
risk 1343
nal 1344
ack 1345
fine 1346
'd 1347
sla@@ 1348
voice 1349
talked 1350
towards 1351
ell@@ 1352
changes 1353
coll@@ 1354
instead 1355
design 1356
pat@@ 1357
ality 1358
international 1359
amen@@ 1360
ahead 1361
tively 1362
bus 1363
ath 1364
prof@@ 1365
training 1366
ection 1367
ser 1368
ements 1369
absolutely 1370
definitely 1371
ce@@ 1372
record 1373
longer 1374
vis@@ 1375
cy 1376
eat 1377
stat@@ 1378
mini@@ 1379
equ@@ 1380
mine 1381
ember 1382
places 1383
tro@@ 1384
0@@ 1385
brea@@ 1386
ny 1387
special 1388
feet 1389
gl@@ 1390
% 1391
piece 1392
eg@@ 1393
1 1394
difference 1395
ja@@ 1396
non@@ 1397
resources 1398
quickly 1399
star@@ 1400
enti@@ 1401
ann@@ 1402
travel 1403
acc@@ 1404
department 1405
smo@@ 1406
nu@@ 1407
third 1408
include 1409
became 1410
bal@@ 1411
tur@@ 1412
cy@@ 1413
china 1414
bat@@ 1415
period 1416
ven 1417
iled 1418
ices 1419
chan@@ 1420
write 1421
ef 1422
lives 1423
vic@@ 1424
serve 1425
yo@@ 1426
contact 1427
industry 1428
9 1429
pt 1430
pp@@ 1431
location 1432
motion 1433
boy 1434
follow 1435
new@@ 1436
girl 1437
shop 1438
cies 1439
party 1440
ement 1441
bir@@ 1442
exten@@ 1443
ct 1444
associ@@ 1445
held 1446
some@@ 1447
companies 1448
wil@@ 1449
ering 1450
ual 1451
20@@ 1452
financial 1453
expect 1454
pass 1455
lots 1456
hur@@ 1457
huge 1458
kes 1459
music 1460
hun@@ 1461
ss@@ 1462
arti@@ 1463
beach 1464
post 1465
int 1466
regu@@ 1467
paper 1468
tru@@ 1469
increase 1470
figure 1471
worked 1472
ku@@ 1473
cs 1474
serv@@ 1475
rou@@ 1476
i'd 1477
jalan 1478
fic 1479
suppor@@ 1480
million 1481
tory 1482
rate 1483
result 1484
dear 1485
vely 1486
happens 1487
eli@@ 1488
sea@@ 1489
tar@@ 1490
media 1491
spo@@ 1492
00@@ 1493
website 1494
ka@@ 1495
inside 1496
problems 1497
depen@@ 1498
tried 1499
involved 1500
needed 1501
cut 1502
middle 1503
ching 1504
poli@@ 1505
ming 1506
usually 1507
sor@@ 1508
sou@@ 1509
major 1510
ack@@ 1511
mic 1512
ish 1513
poor 1514
council 1515
giving 1516
lay 1517
8 1518
wers 1519
lim@@ 1520
she@@ 1521
anyone 1522
tec@@ 1523
ar 1524
defen@@ 1525
personal 1526
cru@@ 1527
ing@@ 1528
therefore 1529
fre@@ 1530
down@@ 1531
schools 1532
enga@@ 1533
main@@ 1534
cop@@ 1535
experi@@ 1536
received 1537
due 1538
que@@ 1539
finally 1540
ia 1541
you'll 1542
ories 1543
alipay 1544
earlier 1545
screen 1546
qui@@ 1547
alone 1548
sea 1549
ples 1550
wal@@ 1551
cl@@ 1552
od@@ 1553
ring 1554
wea@@ 1555
simple 1556
main 1557
beginning 1558
chance 1559
weeks 1560
moved 1561
birth 1562
wasn't 1563
bit@@ 1564
gri@@ 1565
return 1566
comm@@ 1567
east 1568
property 1569
english 1570
mm 1571
clin@@ 1572
arri@@ 1573
person@@ 1574
america 1575
sequence 1576
hom@@ 1577
19@@ 1578
care@@ 1579
management 1580
appe@@ 1581
conversation 1582
2nd 1583
likely 1584
feeling 1585
plus 1586
tic@@ 1587
although 1588
9@@ 1589
safe 1590
color 1591
environment 1592
race 1593
attention 1594
wit@@ 1595
takes 1596
isn't 1597
ini@@ 1598
similar 1599
publi@@ 1600
approach 1601
ok@@ 1602
sixty 1603
la 1604
simply 1605
val 1606
enjoy 1607
political 1608
cover 1609
percent 1610
fir@@ 1611
zation 1612
missi@@ 1613
lab@@ 1614
allow 1615
air@@ 1616
click 1617
ach 1618
covered 1619
tou@@ 1620
society 1621
particularly 1622
event 1623
mb@@ 1624
dance 1625
loo@@ 1626
hood 1627
identi@@ 1628
10 1629
asking 1630
practice 1631
ler 1632
choose 1633
passed 1634
security 1635
related 1636
hotels 1637
beyond 1638
pra@@ 1639
natural 1640
fran@@ 1641
running 1642
blo@@ 1643
ght@@ 1644
gin@@ 1645
any@@ 1646
section 1647
refl@@ 1648
sig@@ 1649
store 1650
ld 1651
ll 1652
customers 1653
correct 1654
reading 1655
changed 1656
individual 1657
t's 1658
lee 1659
restaurants 1660
atten@@ 1661
gonna 1662
culture 1663
waiting 1664
countries 1665
disc@@ 1666
deep 1667
dar@@ 1668
break 1669
gers 1670
scre@@ 1671
fall 1672
happening 1673
vie@@ 1674
nic@@ 1675
gation 1676
protec@@ 1677
kin@@ 1678
fr@@ 1679
stand 1680
recently 1681
pal@@ 1682
struc@@ 1683
app@@ 1684
indeed 1685
above 1686
7 1687
range 1688
wer 1689
ssed 1690
sec@@ 1691
land@@ 1692
bru@@ 1693
lord 1694
chinese 1695
practi@@ 1696
tal 1697
summer 1698
surpri@@ 1699
ships 1700
hen@@ 1701
sm@@ 1702
platform 1703
0000@@ 1704
super@@ 1705
aw@@ 1706
ko@@ 1707
opportunities 1708
points 1709
consider 1710
sound 1711
consider@@ 1712
understanding 1713
vision 1714
cated 1715
dea@@ 1716
search 1717
fication 1718
role 1719
paid 1720
tan@@ 1721
vin@@ 1722
tain@@ 1723
ig@@ 1724
following 1725
hearing 1726
ects 1727
writing 1728
ank 1729
bul@@ 1730
ther 1731
minute 1732
code 1733
chapter 1734
round 1735
commit@@ 1736
mission 1737
tin@@ 1738
ideas 1739
bly 1740
additional 1741
ow@@ 1742
cle 1743
verse 1744
receive 1745
invest@@ 1746
various 1747
garden 1748
york 1749
sol@@ 1750
programs 1751
mur@@ 1752
provi@@ 1753
wife 1754
radi@@ 1755
tual 1756
dings 1757
note 1758
evening 1759
books 1760
spend 1761
inst@@ 1762
cla@@ 1763
pping 1764
low@@ 1765
bility 1766
numbers 1767
bor@@ 1768
.@@ 1769
ket 1770
bas@@ 1771
anti@@ 1772
visit 1773
perfect 1774
kers 1775
medical 1776
tom 1777
defin@@ 1778
tim@@ 1779
bar 1780
ours 1781
worth 1782
details 1783
built 1784
amazing 1785
ately 1786
hair 1787
ils 1788
fun 1789
pool 1790
added 1791
tically 1792
library 1793
performance 1794
ction 1795
mark 1796
ei@@ 1797
committee 1798
om 1799
apply 1800
cool 1801
conver@@ 1802
significant 1803
agen@@ 1804
bs 1805
died 1806
message 1807
bin@@ 1808
q 1809
ff 1810
wonderful 1811
solution 1812
twelve 1813
infor@@ 1814
blue 1815
ford 1816
lines 1817
stories 1818
dom 1819
cour@@ 1820
emer@@ 1821
mary 1822
decided 1823
tics 1824
sters 1825
particip@@ 1826
xi@@ 1827
stro@@ 1828
letter 1829
moun@@ 1830
ton@@ 1831
slide 1832
ner@@ 1833
ery 1834
subject 1835
enter@@ 1836
wed 1837
county 1838
tax 1839
dies 1840
expected 1841
reli@@ 1842
lady 1843
fish 1844
capital 1845
d's 1846
logi@@ 1847
fund 1848
fifteen 1849
systems 1850
standing 1851
ult 1852
parts 1853
mul@@ 1854
eighty 1855
shows 1856
she's 1857
whom 1858
groups 1859
rely 1860
lead 1861
pol@@ 1862
tent 1863
oc@@ 1864
ror 1865
tt@@ 1866
economic 1867
see@@ 1868
alls 1869
effect 1870
necessary 1871
sign 1872
avenue 1873
od 1874
review 1875
earth 1876
ney 1877
learned 1878
pression 1879
application 1880
starting 1881
fair 1882
lic@@ 1883
entire 1884
you@@ 1885
20 1886
cou@@ 1887
demo@@ 1888
my@@ 1889
scot@@ 1890
agree 1891
ingly 1892
seventy 1893
stic 1894
truth 1895
lon@@ 1896
content 1897
judge 1898
ken 1899
quick 1900
square 1901
ninety 1902
sit 1903
competi@@ 1904
seem 1905
spir@@ 1906
bill 1907
discussion 1908
mid@@ 1909
trust 1910
conference 1911
load 1912
gol@@ 1913
mana@@ 1914
000 1915
pur@@ 1916
guy 1917
admini@@ 1918
nar@@ 1919
member 1920
increas@@ 1921
standard 1922
gle 1923
stood 1924
cel@@ 1925
positive 1926
internet 1927
throughout 1928
events 1929
wood 1930
charge 1931
written 1932
final 1933
federal 1934
folks 1935
served 1936
fort 1937
'll 1938
completely 1939
safety 1940
won't 1941
bil@@ 1942
trac@@ 1943
execu@@ 1944
gate 1945
fast 1946
citiz@@ 1947
shu@@ 1948
ef@@ 1949
speaking 1950
machine 1951
lled 1952
win 1953
argu@@ 1954
wants 1955
herself 1956
flo@@ 1957
supp@@ 1958
lies 1959
chair 1960
self 1961
oni@@ 1962
ise 1963
acade@@ 1964
't 1965
pers 1966
communities 1967
wards 1968
photo@@ 1969
exper@@ 1970
presentation 1971
shes 1972
begin 1973
listen 1974
projects 1975
jud@@ 1976
j 1977
patients 1978
putting 1979
rights 1980
sons 1981
thro@@ 1982
contribu@@ 1983
grow 1984
ain 1985
success 1986
justice 1987
legal 1988
differ@@ 1989
equi@@ 1990
press 1991
bla@@ 1992
fer 1993
whose 1994
tered 1995
nov@@ 1996
breakfast 1997
cked 1998
zz@@ 1999
gives 2000
ya@@ 2001
forms 2002
stru@@ 2003
cast 2004
cold 2005
def@@ 2006
scienti@@ 2007
bran@@ 2008
response 2009
material 2010
tax@@ 2011
actual 2012
os 2013
pick 2014
201@@ 2015
lou@@ 2016
aware 2017
vari@@ 2018
logical 2019
miles 2020
bio@@ 2021
ths 2022
hit 2023
cli@@ 2024
families 2025
kinds 2026
recogni@@ 2027
tures 2028
brain 2029
ghts 2030
gn@@ 2031
total 2032
direction 2033
organization 2034
global 2035
according 2036
stage 2037
ounds 2038
law@@ 2039
investi@@ 2040
clearly 2041
sitting 2042
ere 2043
spec@@ 2044
evi@@ 2045
complete 2046
save 2047
stea@@ 2048
afternoon 2049
dep@@ 2050
primary 2051
kept 2052
every@@ 2053
relationship 2054
dge 2055
eighteen 2056
created 2057
customer 2058
distance 2059
read@@ 2060
reco@@ 2061
tations 2062
balance 2063
sses 2064
actions 2065
bay 2066
lations 2067
ana 2068
alo@@ 2069
len@@ 2070
emplo@@ 2071
occu@@ 2072
wide 2073
ably 2074
club 2075
watching 2076
asi@@ 2077
potential 2078
series 2079
claim 2080
career 2081
haven't 2082
respect 2083
fear 2084
file 2085
chu@@ 2086
ping 2087
bottom 2088
required 2089
central 2090
reasons 2091
comfortable 2092
sides 2093
ill@@ 2094
sales 2095
currently 2096
continued 2097
repe@@ 2098
clean 2099
growing 2100
conclu@@ 2101
dead 2102
parti@@ 2103
organi@@ 2104
purpose 2105
ption 2106
challenge 2107
hong 2108
but@@ 2109
mel@@ 2110
quar@@ 2111
bye 2112
sam@@ 2113
types 2114
river 2115
knows 2116
comments 2117
limited 2118
planning 2119
tom@@ 2120
imagine 2121
determin@@ 2122
kil@@ 2123
hot 2124
tomorrow 2125
below 2126
directly 2127
recor@@ 2128
allowed 2129
notice 2130
distin@@ 2131
sun 2132
dot 2133
views 2134
corpor@@ 2135
satis@@ 2136
ong@@ 2137
eh 2138
ature 2139
graph@@ 2140
expec@@ 2141
rema@@ 2142
ets 2143
hear@@ 2144
peri@@ 2145
hey 2146
sion@@ 2147
aring 2148
anybody 2149
dence 2150
wouldn't 2151
stration 2152
vers 2153
reduc@@ 2154
sett@@ 2155
credit 2156
eleven 2157
vil@@ 2158
active 2159
ess@@ 2160
dog 2161
cer@@ 2162
introduc@@ 2163
recommen@@ 2164
hospital 2165
hill 2166
sil@@ 2167
sleep 2168
population 2169
budget 2170
fund@@ 2171
sight 2172
hel@@ 2173
ee@@ 2174
mal@@ 2175
blood 2176
dark 2177
afri@@ 2178
fi 2179
sely 2180
ris@@ 2181
ency 2182
pain@@ 2183
mation 2184
cape 2185
gon 2186
docu@@ 2187
pper 2188
thus 2189
funding 2190
ligh@@ 2191
sat@@ 2192
mic@@ 2193
san 2194
couldn't 2195
aren@@ 2196
cky 2197
behavi@@ 2198
lie 2199
eye 2200
offici@@ 2201
pieces 2202
cover@@ 2203
conditions 2204
physi@@ 2205
back@@ 2206
lec@@ 2207
ered 2208
provided 2209
network 2210
chat 2211
aci@@ 2212
ened 2213
xed 2214
dic@@ 2215
chicken 2216
cation 2217
computer 2218
benefit 2219
lim 2220
' 2221
direct 2222
sequ@@ 2223
fli@@ 2224
esses 2225
tree 2226
finding 2227
till 2228
excited 2229
steps 2230
ound 2231
itation 2232
consum@@ 2233
telling 2234
ries 2235
assu@@ 2236
attemp@@ 2237
treatment 2238
ssive 2239
fit 2240
names 2241
alright 2242
choice 2243
tiv@@ 2244
trial 2245
sat 2246
micro@@ 2247
star 2248
digital 2249
tho@@ 2250
ful@@ 2251
passion 2252
firm 2253
chec@@ 2254
physical 2255
strate@@ 2256
ot 2257
skills 2258
cin@@ 2259
successful 2260
believ@@ 2261
london 2262
sis 2263
ourselves 2264
direc@@ 2265
asp@@ 2266
sle@@ 2267
presen@@ 2268
gic 2269
dol@@ 2270
ear 2271
teachers 2272
basis 2273
wall 2274
shor@@ 2275
die 2276
sa 2277
opened 2278
boo@@ 2279
accoun@@ 2280
patient 2281
constitu@@ 2282
dered 2283
dents 2284
nur@@ 2285
nat@@ 2286
ever@@ 2287
wrote 2288
aling 2289
income 2290
improve 2291
zo@@ 2292
appreciate 2293
icient 2294
activity 2295
plans 2296
covid 2297
shot 2298
none 2299
activities 2300
join 2301
progress 2302
fic@@ 2303
sell 2304
fun@@ 2305
floor 2306
spirit 2307
gan 2308
dness 2309
degree 2310
squ@@ 2311
suddenly 2312
fur@@ 2313
workers 2314
pressed 2315
forth 2316
ate@@ 2317
mes@@ 2318
ective 2319
hal@@ 2320
dle 2321
studies 2322
terri@@ 2323
cip@@ 2324
quote 2325
secu@@ 2326
greater 2327
accep@@ 2328
mit 2329
strug@@ 2330
flow@@ 2331
normal 2332
brother 2333
touch 2334
train 2335
production 2336
explain 2337
mean@@ 2338
native 2339
plea@@ 2340
purcha@@ 2341
abilities 2342
nam@@ 2343
reali@@ 2344
ina 2345
eve 2346
ken@@ 2347
ham 2348
et@@ 2349
doc@@ 2350
mem@@ 2351
top@@ 2352
addition 2353
inn 2354
tex@@ 2355
cau@@ 2356
sets 2357
ese 2358
ards 2359
princi@@ 2360
immediately 2361
contro@@ 2362
anyway 2363
dinner 2364
recent 2365
tonight 2366
answered 2367
em 2368
develop 2369
double 2370
uti@@ 2371
fru@@ 2372
features 2373
generally 2374
fight 2375
scale 2376
ference 2377
elec@@ 2378
foot@@ 2379
mom@@ 2380
lose 2381
hou@@ 2382
economy 2383
master 2384
announ@@ 2385
clou@@ 2386
pres@@ 2387
original 2388
ans@@ 2389
great@@ 2390
recommend 2391
remain 2392
pos@@ 2393
individuals 2394
e's 2395
missus 2396
rule 2397
spent 2398
christ@@ 2399
bea@@ 2400
require@@ 2401
necessarily 2402
fell 2403
style 2404
movement 2405
agre@@ 2406
tools 2407
playing 2408
considered 2409
gement 2410
swe@@ 2411
comment 2412
scho@@ 2413
honor 2414
broad@@ 2415
facilities 2416
bert 2417
context 2418
ought 2419
spoke 2420
statement 2421
histori@@ 2422
traditional 2423
marks 2424
born 2425
baby 2426
cook 2427
nation 2428
vote 2429
ron@@ 2430
payment 2431
lands 2432
phi@@ 2433
mea@@ 2434
rel@@ 2435
specifically 2436
refer@@ 2437
posi@@ 2438
conveni@@ 2439
lived 2440
option 2441
ssi@@ 2442
goal 2443
forget 2444
sear@@ 2445
supposed 2446
resp@@ 2447
multiple 2448
initi@@ 2449
fav@@ 2450
logy 2451
autom@@ 2452
im 2453
window 2454
structure 2455
century 2456
thi@@ 2457
wind 2458
modern 2459
guest 2460
ession 2461
mum 2462
ple 2463
trade 2464
costs 2465
ca 2466
recording 2467
gment 2468
ep 2469
shar@@ 2470
eu@@ 2471
ners 2472
incredi@@ 2473
source 2474
avo@@ 2475
distribu@@ 2476
chief 2477
image 2478
electri@@ 2479
demand 2480
coffee 2481
thoughts 2482
ka 2483
listening 2484
tially 2485
christi@@ 2486
ically 2487
mile 2488
challenges 2489
businesses 2490
dig@@ 2491
argument 2492
jobs 2493
effort 2494
peace 2495
form@@ 2496
rer 2497
dy@@ 2498
hopefully 2499
pain 2500
essed 2501
investment 2502
levels 2503
port@@ 2504
gest 2505
suppose 2506
gradu@@ 2507
tained 2508
followed 2509
options 2510
easily 2511
foun@@ 2512
familiar 2513
aries 2514
establi@@ 2515
track 2516
sounds 2517
fastest 2518
ough 2519
showed 2520
pointed 2521
tin 2522
enjo@@ 2523
ort@@ 2524
rise 2525
teacher 2526
connec@@ 2527
industri@@ 2528
antly 2529
session 2530
glad 2531
audience 2532
located 2533
items 2534
ach@@ 2535
benefits 2536
ine@@ 2537
opinion 2538
sty 2539
bon@@ 2540
tical 2541
comple@@ 2542
occa@@ 2543
block 2544
non 2545
turning 2546
mer 2547
assi@@ 2548
tage 2549
mitted 2550
cking 2551
david 2552
function 2553
ordin@@ 2554
don 2555
draw 2556
crow@@ 2557
ond 2558
auth@@ 2559
shipping 2560
acks 2561
rules 2562
shopping 2563
officer 2564
meaning 2565
condition 2566
ne 2567
us@@ 2568
quali@@ 2569
meant 2570
weather 2571
critical 2572
$@@ 2573
base 2574
strategy 2575
ages 2576
timate 2577
quo@@ 2578
mobile 2579
professional 2580
grant 2581
housing 2582
ads 2583
perspective 2584
teaching 2585
animals 2586
wonder@@ 2587
sel 2588
capacity 2589
pictures 2590
gun 2591
consci@@ 2592
ams 2593
ston 2594
mal 2595
lor@@ 2596
fortun@@ 2597
ped 2598
und@@ 2599
ables 2600
except 2601
shel@@ 2602
para@@ 2603
loved 2604
sample 2605
stone 2606
swi@@ 2607
serious 2608
mista@@ 2609
poin@@ 2610
item 2611
ade 2612
unless 2613
gold 2614
previous 2615
afraid 2616
zy 2617
vacc@@ 2618
showing 2619
jec@@ 2620
grand@@ 2621
doubt 2622
gentle@@ 2623
england 2624
clu@@ 2625
disease 2626
discus@@ 2627
alle@@ 2628
arm 2629
writ@@ 2630
kong 2631
consist@@ 2632
yesterday 2633
deb@@ 2634
tting 2635
pha@@ 2636
climate 2637
overall 2638
kit 2639
wonder 2640
jour@@ 2641
season 2642
stress 2643
ghtly 2644
reached 2645
deser@@ 2646
testi@@ 2647
changing 2648
fit@@ 2649
temp@@ 2650
ada 2651
plac@@ 2652
divi@@ 2653
text 2654
raised 2655
zes 2656
jer@@ 2657
professor 2658
compla@@ 2659
thers 2660
nobody 2661
focused 2662
developed 2663
deep@@ 2664
excellent 2665
heavy 2666
jury 2667
included 2668
dama@@ 2669
priv@@ 2670
ounded 2671
temple 2672
ssing 2673
huh 2674
thern 2675
liter@@ 2676
stance 2677
secre@@ 2678
charac@@ 2679
husband 2680
invol@@ 2681
ried 2682
ensure 2683
govern@@ 2684
western 2685
gas 2686
wear 2687
minister 2688
analysis 2689
ste 2690
hall 2691
lau@@ 2692
efforts 2693
ith 2694
character 2695
spring 2696
iling 2697
thin@@ 2698
tren@@ 2699
background 2700
collabor@@ 2701
chea@@ 2702
silver 2703
wi 2704
senior 2705
region 2706
ached 2707
essentially 2708
california 2709
mari@@ 2710
pressure 2711
liber@@ 2712
awa@@ 2713
eption 2714
ute 2715
cate 2716
lish 2717
song 2718
ick 2719
unique 2720
proper@@ 2721
lling 2722
daughter 2723
cash 2724
straight 2725
exam@@ 2726
tionally 2727
anxi@@ 2728
island 2729
buil@@ 2730
supply 2731
serving 2732
ony 2733
girls 2734
super 2735
tend 2736
manner 2737
reply 2738
cross 2739
pack@@ 2740
duc@@ 2741
pes 2742
helping 2743
alter@@ 2744
soul 2745
weight 2746
ended 2747
dou@@ 2748
marri@@ 2749
leadership 2750
popular 2751
calling 2752
dation 2753
movie 2754
mit@@ 2755
vers@@ 2756
fare 2757
secon@@ 2758
king@@ 2759
ran 2760
multi@@ 2761
tains 2762
cultural 2763
willing 2764
markets 2765
india 2766
keeping 2767
arms 2768
refu@@ 2769
closed 2770
alized 2771
fresh 2772
aching 2773
faith 2774
decisions 2775
here's 2776
ites 2777
daily 2778
strange 2779
usual 2780
effective 2781
sac@@ 2782
driving 2783
director 2784
teach 2785
oil 2786
museum 2787
sin 2788
core 2789
expen@@ 2790
drew 2791
whi@@ 2792
ol 2793
average 2794
revenue 2795
itable 2796
film 2797
loss 2798
jap@@ 2799
curi@@ 2800
request 2801
ase 2802
rates 2803
russi@@ 2804
yel@@ 2805
reality 2806
selling 2807
fem@@ 2808
they've 2809
frequ@@ 2810
head@@ 2811
trees 2812
guests 2813
mes 2814
susp@@ 2815
nearly 2816
categ@@ 2817
ey 2818
lane 2819
guide 2820
europe 2821
environ@@ 2822
march 2823
teen@@ 2824
path 2825
iting 2826
instance 2827
stock 2828
vey 2829
symp@@ 2830
union 2831
helpful 2832
placed 2833
prices 2834
dor 2835
rich 2836
ek 2837
regar@@ 2838
campus 2839
google 2840
inci@@ 2841
turns 2842
expl@@ 2843
foot 2844
neighb@@ 2845
tori@@ 2846
contract 2847
brand 2848
select 2849
setting 2850
gar 2851
fol@@ 2852
becomes 2853
sky 2854
ban 2855
dates 2856
0s 2857
vel@@ 2858
existing 2859
essing 2860
stry 2861
deca@@ 2862
sition 2863
minal 2864
sixteen 2865
rose 2866
emo@@ 2867
authority 2868
addre@@ 2869
demon@@ 2870
acts 2871
connect 2872
comb@@ 2873
leading 2874
gin 2875
helped 2876
less@@ 2877
oring 2878
iness 2879
ye 2880
stant 2881
cable 2882
walking 2883
transfer 2884
testing 2885
gotten 2886
desig@@ 2887
trouble 2888
expan@@ 2889
tool 2890
metho@@ 2891
chard 2892
perf@@ 2893
ancy 2894
succ@@ 2895
ly@@ 2896
analy@@ 2897
quanti@@ 2898
swit@@ 2899
decide 2900
ath@@ 2901
perc@@ 2902
survi@@ 2903
gal@@ 2904
cement 2905
saint 2906
poss@@ 2907
willi@@ 2908
useful 2909
leaders 2910
brown 2911
journey 2912
soli@@ 2913
topic 2914
sy 2915
creating 2916
prepared 2917
schedu@@ 2918
village 2919
pursu@@ 2920
advice 2921
insurance 2922
produce 2923
returned 2924
tici@@ 2925
solve 2926
bb@@ 2927
measure 2928
sco@@ 2929
iry 2930
advan@@ 2931
iso@@ 2932
basic 2933
extra 2934
agreement 2935
generation 2936
za 2937
eph@@ 2938
ount 2939
fall@@ 2940
ris 2941
former 2942
vol@@ 2943
neu@@ 2944
drop 2945
military 2946
clock 2947
feat@@ 2948
discuss 2949
bun@@ 2950
occur@@ 2951
soft 2952
protect 2953
bridge 2954
map 2955
fying 2956
increased 2957
sex@@ 2958
ods 2959
friendly 2960
flu@@ 2961
strength 2962
acqui@@ 2963
experiences 2964
cally 2965
yi@@ 2966
tivity 2967
dr 2968
gover@@ 2969
larger 2970
filled 2971
french 2972
foreign 2973
connected 2974
ima@@ 2975
pose 2976
somewhere 2977
30 2978
glass 2979
appropriate 2980
facebook 2981
mir@@ 2982
sugge@@ 2983
jac@@ 2984
integr@@ 2985
bed@@ 2986
detail 2987
app 2988
otherwise 2989
func@@ 2990
toward 2991
jesus 2992
speech 2993
q@@ 2994
facts 2995
ills 2996
sage 2997
consul@@ 2998
separate 2999
whe@@ 3000
complex 3001
encourage 3002
beauty 3003
evol@@ 3004
hm 3005
ul 3006
recei@@ 3007
vement 3008
raise 3009
replied 3010
enter 3011
que 3012
calls 3013
flow 3014
employees 3015
sity 3016
corner 3017
gla@@ 3018
glo@@ 3019
helps 3020
webinar 3021
opening 3022
spa 3023
fourth 3024
laws 3025
mec@@ 3026
shared 3027
ti 3028
carry 3029
bear 3030
net@@ 3031
cried 3032
biggest 3033
healthy 3034
ist 3035
evalu@@ 3036
wee@@ 3037
weal@@ 3038
pleasure 3039
factors 3040
bought 3041
horse 3042
seventeen 3043
tun@@ 3044
regular 3045
older 3046
enced 3047
route 3048
visit@@ 3049
bringing 3050
sar@@ 3051
thu@@ 3052
boat 3053
who's 3054
grew 3055
spr@@ 3056
sem@@ 3057
cele@@ 3058
fal@@ 3059
providing 3060
dogs 3061
worry 3062
operating 3063
construction 3064
sour@@ 3065
proud 3066
premi@@ 3067
post@@ 3068
ised 3069
pair 3070
organizations 3071
ordinary 3072
outdoor 3073
preci@@ 3074
beli@@ 3075
gran@@ 3076
examples 3077
promi@@ 3078
remo@@ 3079
bigger 3080
easier 3081
vent 3082
dru@@ 3083
stream 3084
run@@ 3085
home@@ 3086
ama@@ 3087
tis@@ 3088
cancer 3089
dist@@ 3090
models 3091
travel@@ 3092
secondary 3093
played 3094
versus 3095
advantage 3096
lion 3097
fourteen 3098
mac@@ 3099
sharing 3100
regarding 3101
gency 3102
bag 3103
powerful 3104
thom@@ 3105
sports 3106
flat 3107
via 3108
concerned 3109
tt 3110
sations 3111
knowing 3112
lit@@ 3113
software 3114
aches 3115
commission 3116
famous 3117
roll 3118
winter 3119
communication 3120
happ@@ 3121
co 3122
za@@ 3123
ous@@ 3124
scen@@ 3125
british 3126
ecu@@ 3127
cuis@@ 3128
lunch 3129
fill 3130
officers 3131
tail 3132
net 3133
gry 3134
tch 3135
version 3136
sign@@ 3137
army 3138
expla@@ 3139
allows 3140
extremely 3141
wow 3142
where@@ 3143
circumstances 3144
stly 3145
deliver@@ 3146
terr@@ 3147
fle@@ 3148
express 3149
acted 3150
tour 3151
assess@@ 3152
authori@@ 3153
confi@@ 3154
classi@@ 3155
claim@@ 3156
bin 3157
legis@@ 3158
recognize 3159
ility 3160
crime 3161
sweet 3162
vehic@@ 3163
lack 3164
busy 3165
sector 3166
achiev@@ 3167
violence 3168
connection 3169
promo@@ 3170
holding 3171
ition 3172
caught 3173
spot 3174
bab@@ 3175
realize 3176
broken 3177
implemen@@ 3178
statements 3179
nes@@ 3180
graph 3181
eng@@ 3182
cities 3183
reasonable 3184
thirteen 3185
entrance 3186
mad 3187
george 3188
passport 3189
surface 3190
50 3191
jects 3192
designed 3193
prior 3194
theat@@ 3195
heal@@ 3196
truly 3197
memory 3198
games 3199
appeared 3200
patter@@ 3201
engineering 3202
mail 3203
cket 3204
goo@@ 3205
favorite 3206
uses 3207
teams 3208
accept 3209
fashi@@ 3210
letters 3211
tired 3212
mouth 3213
materials 3214
totally 3215
shown 3216
philosop@@ 3217
slowly 3218
stopped 3219
compu@@ 3220
feedback 3221
sister 3222
require 3223
ai 3224
mention 3225
obli@@ 3226
ening 3227
youn@@ 3228
manufac@@ 3229
med@@ 3230
pment 3231
gy 3232
secret 3233
notic@@ 3234
assistance 3235
zi@@ 3236
duty 3237
ki 3238
instruc@@ 3239
graduate 3240
onto 3241
soci@@ 3242
joining 3243
guar@@ 3244
resort 3245
carried 3246
worse 3247
european 3248
pandemic 3249
dying 3250
confidence 3251
faster 3252
highly 3253
viol@@ 3254
equal 3255
australia 3256
interpre@@ 3257
agency 3258
married 3259
theory 3260
han 3261
matic 3262
inven@@ 3263
portion 3264
measures 3265
kitchen 3266
majority 3267
ght 3268
shape 3269
ecting 3270
pt@@ 3271
les@@ 3272
classes 3273
inno@@ 3274
introduce 3275
class@@ 3276
ene@@ 3277
channels 3278
dor@@ 3279
employment 3280
operation 3281
develop@@ 3282
contrac@@ 3283
walked 3284
fellow 3285
youth 3286
psycho@@ 3287
civil 3288
acces@@ 3289
child@@ 3290
dream 3291
smaller 3292
offered 3293
ures 3294
confu@@ 3295
ught 3296
imagin@@ 3297
after@@ 3298
eventually 3299
mming 3300
partner 3301
yal 3302
object 3303
sul@@ 3304
ink 3305
washington 3306
courts 3307
chemi@@ 3308
identify 3309
figh@@ 3310
partners 3311
inspi@@ 3312
situ@@ 3313
lin 3314
ir 3315
brief 3316
sites 3317
orders 3318
graphi@@ 3319
relevant 3320
ha 3321
mach@@ 3322
finish 3323
pit@@ 3324
educ@@ 3325
ily 3326
published 3327
taste 3328
gall@@ 3329
boys 3330
lake 3331
labor 3332
signed 3333
reduce 3334
despite 3335
augu@@ 3336
ome@@ 3337
concern 3338
meth@@ 3339
joh@@ 3340
ho 3341
sation 3342
intellig@@ 3343
offers 3344
animal 3345
eed 3346
ther's 3347
archit@@ 3348
peter 3349
part@@ 3350
visu@@ 3351
ut@@ 3352
june 3353
communic@@ 3354
religi@@ 3355
camera 3356
congress 3357
thly 3358
presence 3359
scene 3360
ung 3361
engine@@ 3362
volunte@@ 3363
entered 3364
literally 3365
dows 3366
neither 3367
compe@@ 3368
solutions 3369
collection 3370
channel 3371
colum@@ 3372
stairs 3373
diffic@@ 3374
stantly 3375
trum@@ 3376
paren@@ 3377
expensive 3378
airport 3379
lying 3380
promise 3381
finished 3382
infrastructure 3383
gration 3384
valu@@ 3385
rep@@ 3386
smart 3387
treat 3388
exact 3389
a's 3390
length 3391
spread 3392
push 3393
technical 3394
worl@@ 3395
meetings 3396
cent 3397
document 3398
ra 3399
techno@@ 3400
ssions 3401
victi@@ 3402
mas 3403
ak 3404
arts 3405
presented 3406
ority 3407
task 3408
compon@@ 3409
pull 3410
edu@@ 3411
ical 3412
circu@@ 3413
timately 3414
influence 3415
match 3416
monit@@ 3417
insi@@ 3418
photo 3419
quiet 3420
interview 3421
funds 3422
deter@@ 3423
ops 3424
concerns 3425
temper@@ 3426
becoming 3427
deliver 3428
bath@@ 3429
matters 3430
regard 3431
exercise 3432
partner@@ 3433
house@@ 3434
soup 3435
fel@@ 3436
grade 3437
wan 3438
lic 3439
mony 3440
foundation 3441
laugh@@ 3442
wed@@ 3443
thou 3444
manage 3445
mun@@ 3446
fiel@@ 3447
leaving 3448
shoul@@ 3449
own@@ 3450
plant 3451
host 3452
update 3453
attack 3454
negative 3455
bac@@ 3456
drug 3457
sk 3458
entirely 3459
crisis 3460
drink 3461
parties 3462
fe 3463
wise 3464
respond 3465
circle 3466
qua@@ 3467
ination 3468
clean@@ 3469
titude 3470
compar@@ 3471
james 3472
speaker 3473
dress 3474
tioning 3475
kness 3476
acci@@ 3477
innov@@ 3478
commercial 3479
unfortunately 3480
election 3481
inqu@@ 3482
understood 3483
kets 3484
real@@ 3485
abu@@ 3486
ational 3487
datab@@ 3488
claims 3489
tery 3490
adop@@ 3491
warm 3492
remin@@ 3493
acting 3494
speed 3495
fly 3496
bright 3497
skin 3498
conduct 3499
than@@ 3500
developing 3501
stle 3502
prote@@ 3503
spor@@ 3504
possi@@ 3505
attrac@@ 3506
custom@@ 3507
sword 3508
april 3509
logies 3510
serves 3511
lights 3512
values 3513
goods 3514
spending 3515
achi@@ 3516
ast@@ 3517
irs 3518
seng 3519
bes 3520
spea@@ 3521
eth 3522
sim@@ 3523
rice 3524
ration 3525
submit 3526
impossible 3527
aces 3528
gies 3529
certi@@ 3530
clients 3531
they@@ 3532
fro@@ 3533
release 3534
therap@@ 3535
exclu@@ 3536
leader 3537
one's 3538
possibly 3539
neighbor@@ 3540
veri@@ 3541
edge 3542
esome 3543
article 3544
holiday 3545
fairly 3546
importance 3547
opti@@ 3548
count 3549
mc@@ 3550
mr@@ 3551
web 3552
marina 3553
bud@@ 3554
wis@@ 3555
gen 3556
variety 3557
week@@ 3558
responsibility 3559
turing 3560
foo@@ 3561
pleased 3562
conven@@ 3563
bal 3564
goals 3565
transport 3566
ai@@ 3567
versi@@ 3568
apo@@ 3569
chri@@ 3570
encoura@@ 3571
soldi@@ 3572
pel@@ 3573
servation 3574
candi@@ 3575
figu@@ 3576
cloth@@ 3577
unit 3578
norm@@ 3579
manager 3580
explo@@ 3581
client 3582
slow 3583
scar@@ 3584
provides 3585
rain 3586
paying 3587
leg@@ 3588
requ@@ 3589
coast 3590
campaign 3591
fted 3592
appear 3593
effects 3594
com 3595
freedom 3596
wild 3597
discipl@@ 3598
faculty 3599
ept 3600
killed 3601
mid 3602
mag@@ 3603
audi@@ 3604
supre@@ 3605
engage 3606
mass 3607
compared 3608
nec@@ 3609
member@@ 3610
pay@@ 3611
suggest 3612
cell 3613
title 3614
yu@@ 3615
gain 3616
spi@@ 3617
alist 3618
anymore 3619
volume 3620
ile@@ 3621
michael 3622
illu@@ 3623
ocean 3624
grand 3625
apparen@@ 3626
includes 3627
politics 3628
bunch 3629
colleagues 3630
ising 3631
dry 3632
12 3633
ort 3634
formed 3635
exciting 3636
list@@ 3637
bing 3638
fantastic 3639
mostly 3640
econom@@ 3641
num@@ 3642
americ@@ 3643
standards 3644
tured 3645
dia@@ 3646
videos 3647
sustain@@ 3648
preven@@ 3649
essen@@ 3650
charged 3651
interven@@ 3652
ology 3653
marketing 3654
stric@@ 3655
remains 3656
meters 3657
independent 3658
button 3659
opp@@ 3660
captain 3661
h-@@ 3662
challen@@ 3663
div@@ 3664
proper 3665
licen@@ 3666
day's 3667
3rd 3668
ial 3669
sphere 3670
desire 3671
sentence 3672
january 3673
religious 3674
hosp@@ 3675
perform@@ 3676
prob@@ 3677
progra@@ 3678
ass@@ 3679
kly 3680
bt 3681
separ@@ 3682
compani@@ 3683
bet@@ 3684
partment 3685
sche@@ 3686
kno@@ 3687
gni@@ 3688
pati@@ 3689
sud@@ 3690
correc@@ 3691
tradi@@ 3692
adv@@ 3693
of@@ 3694
lev@@ 3695
wer@@ 3696
din@@ 3697
seri@@ 3698
resour@@ 3699
bot@@ 3700
eps 3701
relation@@ 3702
jan@@ 3703
port 3704
ast 3705
peop@@ 3706
ural 3707
relea@@ 3708
legi@@ 3709
interest@@ 3710
with@@ 3711
singa@@ 3712
struction 3713
acti@@ 3714
versity 3715
ind 3716
ide@@ 3717
sof@@ 3718
poten@@ 3719
fif@@ 3720
nel 3721
sug@@ 3722
commen@@ 3723
tee 3724
unch 3725
desi@@ 3726
dur@@ 3727
nee@@ 3728
justi@@ 3729
origin@@ 3730
intel@@ 3731
ight 3732
jun@@ 3733
camp@@ 3734
org@@ 3735
techni@@ 3736
volu@@ 3737
appea@@ 3738
cc@@ 3739
stern 3740
concer@@ 3741
requi@@ 3742
cle@@ 3743
presi@@ 3744
gir@@ 3745
ety 3746
dow 3747
power@@ 3748
band 3749
ph 3750
tally 3751
certain@@ 3752
stand@@ 3753
fron@@ 3754
civi@@ 3755
viously 3756
moder@@ 3757
lities 3758
addi@@ 3759
sop@@ 3760
focu@@ 3761
signific@@ 3762
stran@@ 3763
esti@@ 3764
conduc@@ 3765
extre@@ 3766
thous@@ 3767
popu@@ 3768
mou@@ 3769
thou@@ 3770
blu@@ 3771
,@@ 3772
wher@@ 3773
inclu@@ 3774
who@@ 3775
chil@@ 3776
tioned 3777
wom@@ 3778
allow@@ 3779
eping 3780
follow@@ 3781
plat@@ 3782
thir@@ 3783
sev@@ 3784
tel 3785
influ@@ 3786
enty 3787
sup@@ 3788
movi@@ 3789
pho@@ 3790
deci@@ 3791
streng@@ 3792
vious 3793
feel@@ 3794
fair@@ 3795
vy 3796
finan@@ 3797
ean 3798
frien@@ 3799
spen@@ 3800
may@@ 3801
smar@@ 3802
measu@@ 3803
mous 3804
cial 3805
musi@@ 3806
curren@@ 3807
consi@@ 3808
abo@@ 3809
ulty 3810
break@@ 3811
there@@ 3812
contin@@ 3813
communi@@ 3814
quic@@ 3815
lied 3816
simp@@ 3817
ques@@ 3818
australi@@ 3819
ouldn't 3820
kit@@ 3821
sibility 3822
benef@@ 3823
accor@@ 3824
free@@ 3825
degre@@ 3826
six@@ 3827
issu@@ 3828
ow 3829
centr@@ 3830
appreci@@ 3831
tem@@ 3832
tish 3833
contr@@ 3834
ade@@ 3835
collea@@ 3836
discu@@ 3837
cust@@ 3838
cir@@ 3839
noti@@ 3840
begin@@ 3841
deta@@ 3842
coura@@ 3843
oms 3844
ury 3845
tea@@ 3846
n't 3847
hund@@ 3848
trou@@ 3849
success@@ 3850
inde@@ 3851
onom@@ 3852
diff@@ 3853
geor@@ 3854
knowle@@ 3855
tually 3856
are@@ 3857
web@@ 3858
dat@@ 3859
lo 3860
immedi@@ 3861
ugh@@ 3862
sus 3863
ee 3864
som@@ 3865
seven@@ 3866
artic@@ 3867
bers 3868
employe@@ 3869
simil@@ 3870
arily 3871
ior 3872
ose 3873
indepen@@ 3874
holi@@ 3875
absolu@@ 3876
ests 3877
bli@@ 3878
arly 3879
lear@@ 3880
chen 3881
stances 3882
profession@@ 3883
distri@@ 3884
import@@ 3885
chur@@ 3886
wr@@ 3887
sci@@ 3888
arch@@ 3889
ue 3890
opped 3891
cred@@ 3892
safe@@ 3893
dem@@ 3894
susta@@ 3895
reason@@ 3896
larly 3897
was@@ 3898
maj@@ 3899
dn't 3900
indu@@ 3901
sport 3902
sty@@ 3903
treat@@ 3904
langu@@ 3905
ease 3906
inte@@ 3907
let@@ 3908
tries 3909
ital 3910
imple@@ 3911
eigh@@ 3912
libr@@ 3913
reas@@ 3914
circum@@ 3915
sever@@ 3916
estab@@ 3917
tural 3918
spe@@ 3919
ener@@ 3920
wn@@ 3921
even@@ 3922
abor@@ 3923
clim@@ 3924
anim@@ 3925
favor@@ 3926
sit@@ 3927
mely 3928
villa@@ 3929
camer@@ 3930
resul@@ 3931
jam@@ 3932
canc@@ 3933
unity 3934
trav@@ 3935
colle@@ 3936
fig@@ 3937
marke@@ 3938
minu@@ 3939
jes@@ 3940
shou@@ 3941
stitu@@ 3942
condi@@ 3943
psy@@ 3944
like@@ 3945
tech@@ 3946
individu@@ 3947
hus@@ 3948
feder@@ 3949
denti@@ 3950
what@@ 3951
exerci@@ 3952
mod@@ 3953
opini@@ 3954
lier 3955
necess@@ 3956
clea@@ 3957
op 3958
anta@@ 3959
comfor@@ 3960
muse@@ 3961
gon@@ 3962
materi@@ 3963
manu@@ 3964
ington 3965
activ@@ 3966
beg@@ 3967
ysi@@ 3968
commer@@ 3969
syste@@ 3970
clear@@ 3971
organiz@@ 3972
aly@@ 3973
lig@@ 3974
gues 3975
mode@@ 3976
ughter 3977
easi@@ 3978
cali@@ 3979
answer@@ 3980
appropri@@ 3981
ich 3982
liar 3983
mee@@ 3984
ols 3985
venue 3986
advanta@@ 3987
tty 3988
tra 3989
excell@@ 3990
tings 3991
zer@@ 3992
campa@@ 3993
yment 3994
volun@@ 3995
ject 3996
titu@@ 3997
£@@ 3998
ome 3999
teach@@ 4000
other@@ 4001
emed 4002
how@@ 4003
alu@@ 4004
unfortun@@ 4005
won@@ 4006
leng@@ 4007
slow@@ 4008
avail@@ 4009
nine@@ 4010
that@@ 4011
incre@@ 4012
webin@@ 4013
chap@@ 4014
chic@@ 4015
surance 4016
grou@@ 4017
dary 4018
ems 4019
itary 4020
activi@@ 4021
ree 4022
them@@ 4023
basi@@ 4024
alan 4025
tely 4026
exa@@ 4027
aver@@ 4028
've 4029
reg@@ 4030
fini@@ 4031
cil 4032
erci@@ 4033
selves 4034
four@@ 4035
eci@@ 4036
profess@@ 4037
inging 4038
rought 4039
ign 4040
noon 4041
vail@@ 4042
hope@@ 4043
tect 4044
envi@@ 4045
actu@@ 4046
commun@@ 4047
beauti@@ 4048
euro@@ 4049
lum@@ 4050
fanta@@ 4051
your@@ 4052
ead 4053
tle@@ 4054
nia 4055
proble@@ 4056
signi@@ 4057
vid 4058
speec@@ 4059
wash@@ 4060
twel@@ 4061
yor@@ 4062
ameri@@ 4063
ross 4064
esp@@ 4065
nega@@ 4066
fami@@ 4067
mple 4068
disci@@ 4069
solu@@ 4070
urity 4071
tence 4072
mobi@@ 4073
specific@@ 4074
beau@@ 4075
fore 4076
grow@@ 4077
coff@@ 4078
fren@@ 4079
contri@@ 4080
acity 4081
call@@ 4082
profes@@ 4083
exac@@ 4084
eric@@ 4085
unti@@ 4086
spective 4087
face@@ 4088
relev@@ 4089
wha@@ 4090
hotel@@ 4091
desp@@ 4092
prou@@ 4093
know@@ 4094
itely 4095
particu@@ 4096
beha@@ 4097
ween 4098
bey@@ 4099
aga@@ 4100
nels 4101
acher 4102
conn@@ 4103
hic@@ 4104
entr@@ 4105
teen 4106
infra@@ 4107
nd 4108
him@@ 4109
busin@@ 4110
citi@@ 4111
use@@ 4112
intro@@ 4113
yea@@ 4114
big@@ 4115
micha@@ 4116
%@@ 4117
through@@ 4118
vide@@ 4119
got@@ 4120
small@@ 4121
stems 4122
opport@@ 4123
ould 4124
hind 4125
gress 4126
¢@@ 4127
staf@@ 4128
softw@@ 4129
stren@@ 4130
raid 4131
rd 4132
're 4133
yester@@ 4134
califor@@ 4135
piec@@ 4136
allen@@ 4137
forts 4138
pande@@ 4139
duce 4140
feed@@ 4141
tomor@@ 4142
offic@@ 4143
nei@@ 4144
happen@@ 4145
apri@@ 4146
stori@@ 4147
timat@@ 4148
usu@@ 4149
europ@@ 4150
leader@@ 4151
help@@ 4152
especi@@ 4153
i'@@ 4154
indivi@@ 4155
doll@@ 4156
austr@@ 4157
uary 4158
pore 4159
haven@@ 4160
toge@@ 4161
inese 4162
unities 4163
philo@@ 4164
wro@@ 4165
sudden@@ 4166
cate@@ 4167
does@@ 4168
restaur@@ 4169
gine 4170
centur@@ 4171
pared 4172
ext 4173
inst 4174
haps 4175
dren 4176
neigh@@ 4177
stest 4178
é@@ 4179
&@@ 4180
resta@@ 4181
é 4182
throu@@ 4183
+@@ 4184
è@@ 4185
devel@@ 4186
& 4187
ô@@ 4188
â@@ 4189
î@@ 4190
+ 4191
à@@ 4192
ë@@ 4193
ilities 4194
ldn't 4195
@@@ 4196
ç@@ 4197
û@@ 4198
<unk> 4199
筑 4200
陨 4201
眺 4202
塘 4203
嘅 4204
衷 4205
氧 4206
孔 4207
阖 4208
邠 4209
坎 4210
喵 4211
曰 4212
鼠 4213
隐 4214
腊 4215
族 4216
咗 4217
𠮶 4218
佢 4219
似 4220
咁 4221
塔 4222
春 4223
罍 4224
娅 4225
棉 4226
弃 4227
茱 4228
应 4229
謢 4230
擦 4231
贺 4232
鹇 4233
迅 4234
诬 4235
盍 4236
哋 4237
啃 4238
黐 4239
辑 4240
揾 4241
斜 4242
瞭 4243
铟 4244
漭 4245
蹇 4246
旆 4247
𩠌 4248
臊 4249
览 4250
嘿 4251
淖 4252
尴 4253
袆 4254
斧 4255
筹 4256
媵 4257
挞 4258
臧 4259
齐 4260
璨 4261
鲗 4262
滂 4263
即 4264
愔 4265
思 4266
幅 4267
祛 4268
箬 4269
礁 4270
茅 4271
北 4272
澡 4273
俭 4274
蘅 4275
肺 4276
肢 4277
巢 4278
九 4279
蠓 4280
路 4281
藻 4282
沱 4283
璐 4284
积 4285
寞 4286
栳 4287
舆 4288
医 4289
眷 4290
岳 4291
勘 4292
璃 4293
黔 4294
𫚭 4295
哎 4296
罡 4297
丝 4298
跣 4299
梦 4300
需 4301
毅 4302
峡 4303
竞 4304
脷 4305
研 4306
眙 4307
滋 4308
鹳 4309
肝 4310
阼 4311
忱 4312
乏 4313
废 4314
邦 4315
㖊 4316
驯 4317
夫 4318
啱 4319
忪 4320
糬 4321
睾 4322
逗 4323
峰 4324
越 4325
狗 4326
蟒 4327
笆 4328
适 4329
洇 4330
缶 4331
辎 4332
粤 4333
蹴 4334
黄 4335
浞 4336
犀 4337
藏 4338
本 4339
嗖 4340
黻 4341
這 4342
绰 4343
鉏 4344
麼 4345
喆 4346
噃 4347
刚 4348
侦 4349
骧 4350
瞓 4351
柤 4352
桃 4353
鲴 4354
褙 4355
韵 4356
妓 4357
舨 4358
轱 4359
塑 4360
坯 4361
貌 4362
蕞 4363
疡 4364
伏 4365
酉 4366
暇 4367
霖 4368
了 4369
萸 4370
嘶 4371
噏 4372
聩 4373
袓 4374
嶓 4375
桎 4376
抖 4377
攥 4378
揈 4379
毳 4380
旗 4381
庸 4382
呋 4383
诲 4384
狭 4385
魄 4386
伎 4387
喋 4388
樱 4389
翎 4390
怯 4391
场 4392
睽 4393
盒 4394
鲳 4395
爆 4396
绵 4397
皋 4398
揞 4399
嘎 4400
渝 4401
迂 4402
嘁 4403
㖞 4404
始 4405
奚 4406
台 4407
禄 4408
攞 4409
座 4410
绀 4411
漱 4412
嫲 4413
榫 4414
诛 4415
萼 4416
裛 4417
玠 4418
谵 4419
亳 4420
副 4421
诊 4422
唑 4423
頫 4424
踎 4425
赁 4426
骇 4427
训 4428
母 4429
床 4430
微 4431
椰 4432
迢 4433
埃 4434
蚺 4435
汩 4436
叟 4437
辔 4438
隙 4439
遵 4440
翕 4441
佬 4442
栖 4443
踉 4444
皕 4445
苏 4446
痂 4447
奋 4448
阄 4449
悌 4450
点 4451
砵 4452
茎 4453
睫 4454
闫 4455
籁 4456
孰 4457
拥 4458
曾 4459
疲 4460
辞 4461
赖 4462
姆 4463
与 4464
诰 4465
怨 4466
沙 4467
塱 4468
谓 4469
晰 4470
嗌 4471
実 4472
魏 4473
鲟 4474
寅 4475
滗 4476
珲 4477
腑 4478
冠 4479
夺 4480
娶 4481
宇 4482
侩 4483
嚿 4484
磺 4485
邛 4486
着 4487
踵 4488
狝 4489
蓼 4490
猿 4491
豆 4492
蔷 4493
沽 4494
去 4495
儍 4496
癀 4497
站 4498
壆 4499
璧 4500
范 4501
逹 4502
菏 4503
龠 4504
岷 4505
嫉 4506
拧 4507
札 4508
戒 4509
琏 4510
绪 4511
馩 4512
楠 4513
莱 4514
别 4515
帻 4516
榚 4517
假 4518
拽 4519
髭 4520
穰 4521
勋 4522
栓 4523
塬 4524
嘥 4525
刻 4526
侣 4527
鎉 4528
趸 4529
稳 4530
岌 4531
拎 4532
落 4533
冚 4534
氨 4535
桴 4536
鬶 4537
蚣 4538
肌 4539
讹 4540
骼 4541
忧 4542
雹 4543
算 4544
腔 4545
璇 4546
酣 4547
锭 4548
蟾 4549
逦 4550
椟 4551
频 4552
矫 4553
拨 4554
珅 4555
侨 4556
蚨 4557
攰 4558
瑆 4559
儋 4560
恳 4561
瀍 4562
敌 4563
俹 4564
簁 4565
嗱 4566
烂 4567
绿 4568
缆 4569
辣 4570
蔗 4571
圾 4572
骞 4573
慥 4574
啶 4575
帔 4576
楢 4577
蚤 4578
浛 4579
綦 4580
肩 4581
擎 4582
瘆 4583
娲 4584
暑 4585
鲨 4586
焚 4587
剽 4588
玚 4589
乔 4590
纪 4591
熏 4592
毗 4593
鳙 4594
鞥 4595
絜 4596
糠 4597
菔 4598
廛 4599
谪 4600
冬 4601
遐 4602
衽 4603
柿 4604
峭 4605
渴 4606
亓 4607
荠 4608
蝠 4609
饩 4610
鄞 4611
揳 4612
忟 4613
摸 4614
牙 4615
搣 4616
呜 4617
陂 4618
磻 4619
匹 4620
迁 4621
良 4622
郤 4623
蚕 4624
浥 4625
鲋 4626
腱 4627
揗 4628
颉 4629
夥 4630
左 4631
侉 4632
妍 4633
嚒 4634
殖 4635
私 4636
锱 4637
篪 4638
吻 4639
鄅 4640
鳗 4641
疳 4642
毛 4643
歼 4644
邵 4645
圪 4646
舛 4647
埗 4648
貉 4649
帐 4650
妮 4651
窒 4652
诉 4653
堌 4654
气 4655
國 4656
摩 4657
沫 4658
谁 4659
转 4660
语 4661
琵 4662
羊 4663
昐 4664
慎 4665
踮 4666
啾 4667
瞻 4668
山 4669
播 4670
筌 4671
财 4672
飚 4673
苟 4674
扣 4675
桌 4676
侑 4677
冶 4678
滔 4679
蠹 4680
呓 4681
捷 4682
证 4683
崞 4684
阵 4685
掐 4686
劳 4687
皆 4688
巧 4689
珒 4690
肆 4691
葆 4692
檄 4693
画 4694
唎 4695
谧 4696
曱 4697
诱 4698
纭 4699
荥 4700
厥 4701
甴 4702
睇 4703
布 4704
江 4705
噎 4706
灞 4707
迍 4708
煊 4709
蒹 4710
厮 4711
馓 4712
瑧 4713
碍 4714
穷 4715
食 4716
迩 4717
趣 4718
辜 4719
椁 4720
汽 4721
燠 4722
礴 4723
骈 4724
煽 4725
嗳 4726
秆 4727
勤 4728
陆 4729
键 4730
墎 4731
官 4732
蘧 4733
酤 4734
唐 4735
颓 4736
仝 4737
田 4738
楫 4739
瑁 4740
鄢 4741
诘 4742
霜 4743
镏 4744
痫 4745
娟 4746
婢 4747
埋 4748
汕 4749
铋 4750
徭 4751
隰 4752
𩽾 4753
卞 4754
慑 4755
裘 4756
召 4757
粱 4758
返 4759
缨 4760
纻 4761
磋 4762
炴 4763
𩾌 4764
曝 4765
兀 4766
洼 4767
杓 4768
榆 4769
睹 4770
糯 4771
窘 4772
葩 4773
帮 4774
荷 4775
塌 4776
矍 4777
圯 4778
蚪 4779
篼 4780
咳 4781
吸 4782
喃 4783
岩 4784
嚟 4785
谱 4786
崆 4787
唈 4788
姗 4789
谛 4790
东 4791
菱 4792
輘 4793
祥 4794
述 4795
璋 4796
仙 4797
唇 4798
硕 4799
嘉 4800
醒 4801
兔 4802
恒 4803
银 4804
収 4805
弭 4806
𫐒 4807
螯 4808
苡 4809
疾 4810
鸱 4811
权 4812
搔 4813
途 4814
茂 4815
皑 4816
补 4817
肃 4818
讠 4819
阈 4820
机 4821
苒 4822
撚 4823
幢 4824
哣 4825
萎 4826
帛 4827
骹 4828
襟 4829
𪨶 4830
溶 4831
螺 4832
铲 4833
挜 4834
舌 4835
敖 4836
倍 4837
锏 4838
鸦 4839
夌 4840
埌 4841
腰 4842
雠 4843
涙 4844
翳 4845
夹 4846
疏 4847
驭 4848
鹯 4849
瑜 4850
薛 4851
奇 4852
娴 4853
靳 4854
镥 4855
伍 4856
暨 4857
萧 4858
皴 4859
烦 4860
敷 4861
样 4862
弸 4863
伦 4864
後 4865
祺 4866
贾 4867
汹 4868
箸 4869
掂 4870
械 4871
赜 4872
黎 4873
猄 4874
鲽 4875
牒 4876
罐 4877
冰 4878
成 4879
薳 4880
堡 4881
搜 4882
漪 4883
摷 4884
症 4885
参 4886
鲫 4887
克 4888
浴 4889
薹 4890
掟 4891
调 4892
擏 4893
茹 4894
唞 4895
扂 4896
妪 4897
惟 4898
榜 4899
谒 4900
軚 4901
猥 4902
兴 4903
氓 4904
肘 4905
饕 4906
陵 4907
轲 4908
単 4909
劖 4910
溋 4911
擸 4912
抒 4913
郓 4914
牖 4915
蔻 4916
邂 4917
懦 4918
邻 4919
茸 4920
辈 4921
种 4922
閪 4923
悦 4924
综 4925
溱 4926
藁 4927
士 4928
猝 4929
芹 4930
呒 4931
岐 4932
啩 4933
迟 4934
荞 4935
哏 4936
仵 4937
抟 4938
淇 4939
电 4940
𨅬 4941
果 4942
唥 4943
奀 4944
吴 4945
獐 4946
煲 4947
捹 4948
爰 4949
喐 4950
楋 4951
尻 4952
水 4953
浅 4954
呎 4955
稷 4956
揼 4957
唧 4958
桠 4959
亵 4960
伥 4961
虏 4962
鐡 4963
腌 4964
蔓 4965
褦 4966
戬 4967
鋆 4968
酥 4969
璜 4970
阐 4971
贶 4972
远 4973
验 4974
赎 4975
惭 4976
裴 4977
晌 4978
铡 4979
愆 4980
隧 4981
祐 4982
貔 4983
片 4984
嚡 4985
柰 4986
探 4987
喈 4988
腍 4989
弍 4990
批 4991
胴 4992
郁 4993
蓿 4994
稿 4995
傲 4996
垒 4997
甙 4998
靼 4999
效 5000
栗 5001
齁 5002
仲 5003
担 5004
仟 5005
砂 5006
舰 5007
吝 5008
黚 5009
芸 5010
哥 5011
佩 5012
铀 5013
妊 5014
刍 5015
殄 5016
躬 5017
莙 5018
客 5019
拚 5020
葬 5021
哼 5022
婵 5023
棺 5024
没 5025
崎 5026
曛 5027
宛 5028
斌 5029
掠 5030
醇 5031
庾 5032
黥 5033
乗 5034
涷 5035
铰 5036
寨 5037
钨 5038
沥 5039
萺 5040
嬖 5041
厨 5042
箔 5043
喼 5044
鲖 5045
烚 5046
孭 5047
角 5048
脏 5049
粿 5050
毂 5051
赓 5052
嘢 5053
蹶 5054
駃 5055
呃 5056
訾 5057
蒜 5058
就 5059
抿 5060
仱 5061
牁 5062
叻 5063
绌 5064
捣 5065
埭 5066
聼 5067
迤 5068
最 5069
不 5070
鹚 5071
钧 5072
晃 5073
钍 5074
岍 5075
烯 5076
授 5077
笨 5078
馔 5079
甸 5080
啰 5081
赌 5082
鼆 5083
荆 5084
濉 5085
摹 5086
剔 5087
浪 5088
瓦 5089
涤 5090
阬 5091
墨 5092
鲢 5093
老 5094
拮 5095
轿 5096
弈 5097
秸 5098
省 5099
穹 5100
跨 5101
揦 5102
镚 5103
湍 5104
圑 5105
喧 5106
借 5107
伯 5108
咋 5109
噢 5110
剩 5111
略 5112
图 5113
毕 5114
爻 5115
箭 5116
缣 5117
必 5118
礻 5119
视 5120
侔 5121
乸 5122
缎 5123
比 5124
殉 5125
禅 5126
蹈 5127
茶 5128
沔 5129
腹 5130
更 5131
倢 5132
骑 5133
俦 5134
一 5135
巉 5136
糌 5137
丼 5138
泺 5139
虫 5140
随 5141
室 5142
谙 5143
淞 5144
嘌 5145
掉 5146
进 5147
栈 5148
隋 5149
钳 5150
饲 5151
裾 5152
搞 5153
朽 5154
嚏 5155
垱 5156
倘 5157
蒂 5158
訚 5159
火 5160
葱 5161
踹 5162
胰 5163
曦 5164
汨 5165
奴 5166
院 5167
晶 5168
趷 5169
赭 5170
蚵 5171
便 5172
藜 5173
悗 5174
穆 5175
尿 5176
擳 5177
项 5178
嬅 5179
济 5180
皿 5181
啅 5182
祃 5183
袭 5184
温 5185
包 5186
惎 5187
枝 5188
槁 5189
跑 5190
汇 5191
嫦 5192
崒 5193
颇 5194
丐 5195
丛 5196
暸 5197
鲲 5198
佯 5199
疱 5200
來 5201
彝 5202
件 5203
畐 5204
张 5205
嚢 5206
檎 5207
港 5208
尸 5209
瘘 5210
囍 5211
锅 5212
惫 5213
衔 5214
蔚 5215
龚 5216
酱 5217
尚 5218
孪 5219
蔵 5220
帧 5221
弯 5222
迄 5223
捽 5224
恕 5225
紡 5226
吱 5227
觐 5228
印 5229
叭 5230
茫 5231
汶 5232
邢 5233
磅 5234
㶶 5235
蜣 5236
米 5237
俎 5238
蛔 5239
组 5240
壹 5241
诈 5242
希 5243
茨 5244
砧 5245
蝶 5246
矛 5247
拖 5248
乍 5249
浇 5250
输 5251
朗 5252
殡 5253
壶 5254
灿 5255
𪮶 5256
钡 5257
瓤 5258
序 5259
误 5260
毖 5261
静 5262
鸾 5263
煖 5264
璟 5265
咱 5266
惘 5267
化 5268
腾 5269
苍 5270
冧 5271
七 5272
芾 5273
囝 5274
淄 5275
馆 5276
榉 5277
荸 5278
摧 5279
醋 5280
缦 5281
帘 5282
蛋 5283
曙 5284
萩 5285
莉 5286
犸 5287
拜 5288
特 5289
蕊 5290
并 5291
冼 5292
㓥 5293
茴 5294
佶 5295
噶 5296
柠 5297
吶 5298
竿 5299
噄 5300
糙 5301
栻 5302
褂 5303
杉 5304
陛 5305
朋 5306
升 5307
钛 5308
拭 5309
钱 5310
岸 5311
衲 5312
若 5313
燕 5314
墩 5315
戛 5316
诳 5317
冨 5318
强 5319
掌 5320
腺 5321
淤 5322
泶 5323
妥 5324
亥 5325
俵 5326
鹩 5327
占 5328
佤 5329
棋 5330
拒 5331
劼 5332
绩 5333
货 5334
深 5335
钯 5336
迾 5337
墟 5338
疼 5339
骊 5340
摅 5341
祧 5342
籴 5343
坠 5344
泞 5345
赦 5346
甾 5347
葺 5348
辘 5349
炆 5350
旭 5351
鸯 5352
茆 5353
融 5354
艄 5355
晖 5356
钺 5357
勉 5358
嘘 5359
龛 5360
蕙 5361
渀 5362
钞 5363
写 5364
弋 5365
颦 5366
灌 5367
掅 5368
鲷 5369
亡 5370
矩 5371
轰 5372
单 5373
觚 5374
𫘽 5375
祏 5376
逢 5377
憧 5378
蒽 5379
內 5380
乡 5381
鸠 5382
卜 5383
庄 5384
仰 5385
肨 5386
踝 5387
隆 5388
避 5389
豌 5390
劣 5391
哺 5392
头 5393
说 5394
哇 5395
折 5396
祝 5397
偻 5398
揆 5399
的 5400
盎 5401
初 5402
骝 5403
荻 5404
饷 5405
耽 5406
莸 5407
儬 5408
现 5409
籍 5410
珉 5411
蕲 5412
蓺 5413
闪 5414
崮 5415
琯 5416
圆 5417
瓴 5418
钖 5419
镧 5420
被 5421
共 5422
芯 5423
蚧 5424
沧 5425
抆 5426
觌 5427
筏 5428
庑 5429
题 5430
餋 5431
入 5432
亚 5433
扻 5434
饴 5435
點 5436
梁 5437
忿 5438
荐 5439
躺 5440
睄 5441
呕 5442
圩 5443
唷 5444
陌 5445
鲭 5446
碗 5447
怪 5448
飘 5449
粑 5450
摙 5451
飕 5452
烨 5453
吹 5454
嵇 5455
驺 5456
纰 5457
间 5458
馈 5459
榑 5460
窜 5461
泗 5462
啍 5463
躏 5464
耸 5465
贞 5466
排 5467
箩 5468
绽 5469
舵 5470
焉 5471
振 5472
镶 5473
闲 5474
摁 5475
堰 5476
牵 5477
栋 5478
堤 5479
馀 5480
盟 5481
旄 5482
凇 5483
洣 5484
録 5485
韭 5486
孑 5487
茄 5488
闺 5489
淀 5490
坡 5491
烟 5492
洺 5493
敦 5494
哉 5495
到 5496
遑 5497
钒 5498
壳 5499
纾 5500
砲 5501
灶 5502
玘 5503
梵 5504
旖 5505
佗 5506
竽 5507
秅 5508
砩 5509
酒 5510
苯 5511
焕 5512
祚 5513
苁 5514
嗓 5515
菓 5516
棨 5517
翼 5518
揇 5519
萄 5520
垭 5521
碱 5522
渲 5523
矱 5524
掇 5525
锃 5526
谶 5527
喜 5528
雌 5529
辊 5530
抦 5531
嗞 5532
谢 5533
疹 5534
玎 5535
唤 5536
兆 5537
彳 5538
溧 5539
丕 5540
棒 5541
桁 5542
樓 5543
跟 5544
蝼 5545
哭 5546
啭 5547
替 5548
乩 5549
箪 5550
城 5551
唂 5552
鲌 5553
吕 5554
粉 5555
舜 5556
伛 5557
戯 5558
燮 5559
铊 5560
硝 5561
撤 5562
咇 5563
锵 5564
圣 5565
侬 5566
浮 5567
棵 5568
両 5569
珞 5570
褔 5571
券 5572
演 5573
箫 5574
缵 5575
篾 5576
鲮 5577
砒 5578
含 5579
郡 5580
快 5581
栏 5582
瘟 5583
埲 5584
拃 5585
盹 5586
壕 5587
桯 5588
嗪 5589
鞨 5590
埞 5591
锫 5592
涕 5593
冕 5594
鄣 5595
淌 5596
辰 5597
豂 5598
趌 5599
蚀 5600
跋 5601
郸 5602
镀 5603
赔 5604
蹆 5605
课 5606
础 5607
耷 5608
涪 5609
笳 5610
稞 5611
鹈 5612
珍 5613
毯 5614
酮 5615
汀 5616
梆 5617
倞 5618
准 5619
巷 5620
晋 5621
肉 5622
莆 5623
痢 5624
缗 5625
怜 5626
鄙 5627
逳 5628
掹 5629
该 5630
宓 5631
珂 5632
圉 5633
沊 5634
悬 5635
绸 5636
太 5637
外 5638
祢 5639
蓍 5640
圹 5641
詏 5642
跸 5643
谊 5644
获 5645
讑 5646
夀 5647
鹤 5648
卦 5649
嗻 5650
佐 5651
愠 5652
媲 5653
殍 5654
齉 5655
妹 5656
残 5657
囖 5658
钾 5659
踞 5660
脯 5661
菖 5662
琼 5663
傻 5664
三 5665
虿 5666
唪 5667
逶 5668
鲤 5669
镌 5670
肇 5671
弘 5672
李 5673
履 5674
恩 5675
暪 5676
夙 5677
环 5678
坒 5679
嘣 5680
嵯 5681
命 5682
酢 5683
屏 5684
鎅 5685
麟 5686
旨 5687
旼 5688
疮 5689
解 5690
屈 5691
趴 5692
蠛 5693
密 5694
瞩 5695
屎 5696
显 5697
魁 5698
擝 5699
钇 5700
酩 5701
鳌 5702
戆 5703
芈 5704
十 5705
陪 5706
黑 5707
衹 5708
摇 5709
梨 5710
胼 5711
撷 5712
疤 5713
砟 5714
唛 5715
芪 5716
速 5717
细 5718
馥 5719
邉 5720
鲇 5721
醙 5722
焰 5723
胗 5724
粹 5725
樖 5726
嵬 5727
古 5728
筛 5729
抌 5730
协 5731
魃 5732
格 5733
膶 5734
跱 5735
掺 5736
阕 5737
智 5738
松 5739
靠 5740
斟 5741
粒 5742
舞 5743
瀣 5744
摀 5745
茭 5746
韫 5747
𡥧 5748
灵 5749
龢 5750
卷 5751
曹 5752
哒 5753
皝 5754
哲 5755
患 5756
逸 5757
涠 5758
蛰 5759
佣 5760
猇 5761
狈 5762
囫 5763
风 5764
态 5765
慈 5766
绹 5767
俨 5768
汲 5769
肛 5770
隶 5771
坩 5772
赍 5773
海 5774
癫 5775
委 5776
胤 5777
覩 5778
臬 5779
矶 5780
炷 5781
衬 5782
前 5783
馊 5784
伽 5785
艳 5786
妗 5787
肠 5788
檗 5789
氙 5790
琅 5791
谏 5792
拏 5793
咓 5794
芭 5795
烧 5796
诃 5797
攘 5798
吂 5799
觅 5800
铑 5801
氐 5802
余 5803
鹀 5804
膜 5805
炙 5806
抨 5807
珊 5808
漩 5809
桉 5810
笺 5811
鎛 5812
披 5813
膛 5814
蜻 5815
菽 5816
娼 5817
誃 5818
揽 5819
测 5820
芎 5821
聴 5822
嚸 5823
瓘 5824
慕 5825
他 5826
鄩 5827
矽 5828
沒 5829
唁 5830
匿 5831
设 5832
嵖 5833
㗎 5834
恸 5835
窣 5836
街 5837
膝 5838
碑 5839
瘢 5840
侮 5841
陉 5842
照 5843
原 5844
䲝 5845
悚 5846
答 5847
犷 5848
罔 5849
绘 5850
敞 5851
捆 5852
殚 5853
填 5854
挟 5855
萌 5856
卑 5857
䟴 5858
吉 5859
蜮 5860
㪐 5861
㩿 5862
昺 5863
诤 5864
㩒 5865
矗 5866
䰧 5867
苓 5868
哝 5869
蚋 5870
澳 5871
贱 5872
傕 5873
亦 5874
续 5875
槐 5876
筚 5877
追 5878
醺 5879
錾 5880
蹒 5881
玟 5882
圃 5883
颗 5884
旎 5885
䒐 5886
绷 5887
咙 5888
槃 5889
冫 5890
乳 5891
鸣 5892
柴 5893
蚴 5894
擞 5895
锴 5896
姣 5897
惯 5898
管 5899
奎 5900
瞠 5901
侍 5902
恵 5903
岬 5904
䒏 5905
摭 5906
卺 5907
羧 5908
妁 5909
很 5910
禹 5911
巯 5912
𥇢 5913
鄫 5914
动 5915
㓤 5916
狐 5917
瑕 5918
棹 5919
屹 5920
皈 5921
陔 5922
殛 5923
仿 5924
蝥 5925
缘 5926
镫 5927
品 5928
缜 5929
予 5930
抬 5931
鞶 5932
㧻 5933
㗇 5934
漂 5935
凝 5936
虻 5937
姒 5938
痒 5939
邝 5940
战 5941
悴 5942
㨃 5943
吮 5944
锗 5945
湘 5946
端 5947
淸 5948
孢 5949
郴 5950
卬 5951
濯 5952
射 5953
㜺 5954
锌 5955
啖 5956
懑 5957
㷫 5958
棻 5959
㞗 5960
怅 5961
㗱 5962
䎺 5963
镉 5964
㖭 5965
吲 5966
驹 5967
埇 5968
心 5969
娃 5970
侯 5971
蔽 5972
值 5973
鲧 5974
嘹 5975
滥 5976
騠 5977
喹 5978
悉 5979
嗽 5980
些 5981
磊 5982
霆 5983
麝 5984
曲 5985
蜃 5986
笪 5987
苾 5988
靑 5989
凼 5990
多 5991
质 5992
缇 5993
嗫 5994
沏 5995
花 5996
诹 5997
尉 5998
珥 5999
崩 6000
纷 6001
庙 6002
渚 6003
鸪 6004
乒 6005
惧 6006
歌 6007
唾 6008
膺 6009
哂 6010
腼 6011
霄 6012
坞 6013
霰 6014
镬 6015
巨 6016
碇 6017
藩 6018
活 6019
荤 6020
团 6021
缪 6022
钵 6023
飞 6024
儡 6025
貊 6026
柄 6027
蓠 6028
防 6029
贮 6030
碾 6031
狞 6032
喏 6033
稚 6034
映 6035
谤 6036
蜿 6037
车 6038
乂 6039
啧 6040
虔 6041
垣 6042
讪 6043
隗 6044
帜 6045
绂 6046
公 6047
卮 6048
抱 6049
仕 6050
以 6051
拊 6052
萤 6053
荪 6054
淬 6055
敢 6056
颖 6057
嫩 6058
棕 6059
汤 6060
榨 6061
暗 6062
糍 6063
曼 6064
蒺 6065
鬄 6066
逅 6067
岚 6068
芟 6069
昶 6070
埤 6071
幺 6072
猖 6073
伙 6074
南 6075
荨 6076
趁 6077
淑 6078
嘲 6079
悔 6080
藉 6081
争 6082
渔 6083
簟 6084
谀 6085
噘 6086
窀 6087
祟 6088
阜 6089
涸 6090
掖 6091
疑 6092
搢 6093
漏 6094
锉 6095
钹 6096
踢 6097
骎 6098
稣 6099
锲 6100
繇 6101
劈 6102
啻 6103
蕴 6104
仔 6105
昝 6106
且 6107
滚 6108
柢 6109
镊 6110
响 6111
凰 6112
噗 6113
瑴 6114
嗔 6115
简 6116
蜇 6117
有 6118
豢 6119
翅 6120
愤 6121
蚶 6122
弄 6123
禨 6124
蚡 6125
坝 6126
换 6127
纨 6128
蹑 6129
草 6130
荛 6131
懈 6132
奉 6133
鳊 6134
疗 6135
搂 6136
串 6137
幸 6138
牍 6139
蝰 6140
秣 6141
缴 6142
网 6143
嗑 6144
岗 6145
绊 6146
圳 6147
恁 6148
反 6149
方 6150
癞 6151
煞 6152
雪 6153
尤 6154
麒 6155
黡 6156
殷 6157
都 6158
则 6159
剃 6160
揄 6161
毐 6162
噱 6163
氹 6164
泠 6165
樾 6166
迳 6167
嫚 6168
齿 6169
殳 6170
墒 6171
役 6172
晟 6173
咔 6174
芃 6175
睁 6176
柽 6177
戍 6178
屺 6179
虱 6180
韦 6181
涅 6182
姚 6183
既 6184
涯 6185
甯 6186
嘤 6187
惴 6188
堑 6189
屉 6190
愿 6191
行 6192
谲 6193
嶂 6194
碜 6195
暂 6196
鏖 6197
蜈 6198
浈 6199
萦 6200
职 6201
蚊 6202
汴 6203
妱 6204
鸰 6205
易 6206
芜 6207
挪 6208
影 6209
竹 6210
洸 6211
鹘 6212
胜 6213
兵 6214
咧 6215
楷 6216
币 6217
妖 6218
臣 6219
桩 6220
创 6221
囹 6222
鞑 6223
楂 6224
逡 6225
惆 6226
卿 6227
闱 6228
耀 6229
那 6230
童 6231
钰 6232
玮 6233
郄 6234
昏 6235
乘 6236
钩 6237
晳 6238
笼 6239
核 6240
芙 6241
小 6242
区 6243
颢 6244
稻 6245
销 6246
韶 6247
刑 6248
延 6249
幄 6250
叱 6251
骷 6252
羁 6253
兄 6254
尓 6255
乞 6256
划 6257
壬 6258
芡 6259
佃 6260
氯 6261
您 6262
颌 6263
汝 6264
缫 6265
幂 6266
竣 6267
喾 6268
疥 6269
广 6270
镂 6271
柊 6272
辽 6273
稀 6274
襞 6275
讼 6276
篱 6277
坻 6278
袂 6279
华 6280
自 6281
歧 6282
昂 6283
摺 6284
聿 6285
犟 6286
敛 6287
牺 6288
旳 6289
锥 6290
玛 6291
低 6292
鄮 6293
漳 6294
叠 6295
川 6296
呼 6297
戳 6298
嗮 6299
琦 6300
厓 6301
窠 6302
舷 6303
凛 6304
谖 6305
旷 6306
沌 6307
狒 6308
溉 6309
绍 6310
劲 6311
滟 6312
褊 6313
楽 6314
金 6315
磕 6316
斩 6317
佛 6318
壅 6319
境 6320
诂 6321
浆 6322
矜 6323
藐 6324
伉 6325
阶 6326
哀 6327
潼 6328
精 6329
像 6330
凶 6331
琇 6332
秧 6333
涂 6334
豫 6335
镒 6336
蒟 6337
叹 6338
颜 6339
莫 6340
阀 6341
痕 6342
爬 6343
嬲 6344
滓 6345
沐 6346
璈 6347
窸 6348
湮 6349
喊 6350
徘 6351
而 6352
仞 6353
蛆 6354
吵 6355
郯 6356
谄 6357
膑 6358
恰 6359
筠 6360
淝 6361
剌 6362
估 6363
渊 6364
呦 6365
颎 6366
蔼 6367
亹 6368
墉 6369
倧 6370
猱 6371
顼 6372
泫 6373
鸳 6374
赠 6375
聋 6376
鬲 6377
隽 6378
胚 6379
驱 6380
丶 6381
邪 6382
鲚 6383
韩 6384
婆 6385
审 6386
屠 6387
众 6388
翩 6389
铺 6390
磨 6391
醲 6392
瘼 6393
佑 6394
霹 6395
臀 6396
俯 6397
舸 6398
辍 6399
谗 6400
甥 6401
祭 6402
商 6403
宾 6404
骡 6405
冉 6406
肾 6407
甬 6408
蹚 6409
粕 6410
脖 6411
遽 6412
榕 6413
蹂 6414
邹 6415
沁 6416
宸 6417
旮 6418
锁 6419
侂 6420
拢 6421
辫 6422
仁 6423
洱 6424
摘 6425
律 6426
预 6427
徕 6428
鬣 6429
挠 6430
戟 6431
嘴 6432
杖 6433
劵 6434
哮 6435
雁 6436
擀 6437
鴐 6438
芮 6439
据 6440
霭 6441
俗 6442
伝 6443
轭 6444
博 6445
谐 6446
孺 6447
锹 6448
瞥 6449
导 6450
糜 6451
乾 6452
鏐 6453
你 6454
琍 6455
徇 6456
塞 6457
讽 6458
瞄 6459
溢 6460
卉 6461
逞 6462
阮 6463
阊 6464
婊 6465
专 6466
姜 6467
浉 6468
府 6469
哨 6470
砺 6471
吋 6472
闹 6473
败 6474
居 6475
娓 6476
囟 6477
楼 6478
元 6479
帷 6480
還 6481
懋 6482
郝 6483
丨 6484
崴 6485
橼 6486
停 6487
沾 6488
非 6489
堵 6490
仆 6491
难 6492
狙 6493
找 6494
熠 6495
檀 6496
鸩 6497
檐 6498
彀 6499
蟋 6500
腚 6501
槟 6502
泄 6503
舅 6504
痼 6505
秤 6506
罄 6507
啼 6508
啡 6509
冽 6510
疎 6511
嵨 6512
吿 6513
航 6514
采 6515
裟 6516
辆 6517
溃 6518
唻 6519
媖 6520
佺 6521
狰 6522
仪 6523
沓 6524
话 6525
霾 6526
婷 6527
雨 6528
白 6529
瞧 6530
澎 6531
洞 6532
阔 6533
侧 6534
躇 6535
莘 6536
骏 6537
宰 6538
縠 6539
萃 6540
秉 6541
轮 6542
刹 6543
鸮 6544
忾 6545
胖 6546
攫 6547
磁 6548
鲈 6549
邙 6550
阌 6551
皂 6552
危 6553
靺 6554
唔 6555
柝 6556
垮 6557
膈 6558
辋 6559
榷 6560
邘 6561
锂 6562
戚 6563
粝 6564
翊 6565
悯 6566
涝 6567
媞 6568
俤 6569
镲 6570
梳 6571
蓥 6572
艾 6573
顿 6574
譬 6575
兹 6576
囚 6577
倌 6578
遣 6579
朔 6580
篷 6581
宫 6582
戊 6583
嵎 6584
娉 6585
檫 6586
玷 6587
彰 6588
蜓 6589
癯 6590
怛 6591
镇 6592
还 6593
诿 6594
庞 6595
开 6596
节 6597
卒 6598
逵 6599
颔 6600
杰 6601
蘸 6602
楚 6603
颍 6604
吐 6605
澜 6606
弧 6607
流 6608
堍 6609
严 6610
焱 6611
纬 6612
巽 6613
确 6614
子 6615
紙 6616
沭 6617
屙 6618
胭 6619
劫 6620
珧 6621
信 6622
樵 6623
讴 6624
豺 6625
叽 6626
钎 6627
霁 6628
瀛 6629
糟 6630
噌 6631
豝 6632
湜 6633
洎 6634
菌 6635
悆 6636
凯 6637
徜 6638
郏 6639
勾 6640
嬉 6641
戕 6642
璞 6643
忝 6644
俞 6645
言 6646
庵 6647
贼 6648
费 6649
扁 6650
骁 6651
咪 6652
凿 6653
讳 6654
苄 6655
鳝 6656
茧 6657
筼 6658
愛 6659
渭 6660
踟 6661
罪 6662
踩 6663
陽 6664
疽 6665
闵 6666
我 6667
蒡 6668
缠 6669
婪 6670
农 6671
露 6672
染 6673
氽 6674
圧 6675
咀 6676
梗 6677
舔 6678
嚣 6679
蜉 6680
逖 6681
湄 6682
栅 6683
刳 6684
诸 6685
藕 6686
伋 6687
莜 6688
硬 6689
窟 6690
愚 6691
蟪 6692
秩 6693
雯 6694
褚 6695
鹎 6696
泃 6697
菜 6698
晦 6699
枨 6700
偲 6701
遴 6702
掸 6703
千 6704
馄 6705
功 6706
胺 6707
涡 6708
孩 6709
液 6710
狲 6711
业 6712
巡 6713
脍 6714
甚 6715
珜 6716
郜 6717
蔑 6718
疔 6719
庚 6720
硌 6721
骘 6722
迎 6723
盖 6724
噪 6725
尺 6726
咒 6727
蜕 6728
店 6729
镐 6730
蝉 6731
宝 6732
弩 6733
学 6734
猁 6735
犊 6736
妄 6737
葭 6738
螋 6739
壮 6740
熟 6741
嗬 6742
约 6743
护 6744
疙 6745
羞 6746
绦 6747
铳 6748
掕 6749
宗 6750
荀 6751
玢 6752
啦 6753
氪 6754
盯 6755
疸 6756
鬐 6757
绚 6758
锡 6759
鬻 6760
瓮 6761
麸 6762
旱 6763
娱 6764
敕 6765
跄 6766
烘 6767
蠕 6768
诽 6769
重 6770
翠 6771
珑 6772
慰 6773
鲍 6774
勣 6775
袱 6776
瑙 6777
庆 6778
荦 6779
阗 6780
烫 6781
俏 6782
倦 6783
竟 6784
腋 6785
昙 6786
濂 6787
啋 6788
揶 6789
泣 6790
郾 6791
垍 6792
轳 6793
某 6794
酎 6795
板 6796
晤 6797
奶 6798
醴 6799
镑 6800
讣 6801
缤 6802
龅 6803
畿 6804
脁 6805
嗟 6806
殿 6807
魅 6808
熨 6809
嚷 6810
彤 6811
栎 6812
谡 6813
泽 6814
柬 6815
髎 6816
盆 6817
诅 6818
瘁 6819
萘 6820
喁 6821
媒 6822
阍 6823
锦 6824
爱 6825
揉 6826
苇 6827
嘈 6828
胪 6829
铁 6830
屁 6831
颂 6832
骅 6833
渌 6834
邱 6835
滏 6836
罹 6837
散 6838
鼹 6839
父 6840
摔 6841
边 6842
申 6843
苛 6844
敝 6845
冈 6846
蕈 6847
郕 6848
耨 6849
闳 6850
逄 6851
拔 6852
将 6853
颙 6854
澍 6855
媚 6856
廪 6857
量 6858
贩 6859
镕 6860
恚 6861
旃 6862
铵 6863
堺 6864
剑 6865
支 6866
墙 6867
洒 6868
俳 6869
诐 6870
黟 6871
珩 6872
跻 6873
浸 6874
孟 6875
狷 6876
踌 6877
渎 6878
逝 6879
颁 6880
务 6881
羹 6882
阽 6883
跪 6884
褒 6885
乜 6886
择 6887
盩 6888
鸭 6889
抗 6890
递 6891
褪 6892
怂 6893
蟠 6894
砍 6895
鲔 6896
蹙 6897
杆 6898
茵 6899
尊 6900
耻 6901
淮 6902
蜡 6903
嘱 6904
谩 6905
蝗 6906
姨 6907
铿 6908
楝 6909
力 6910
殊 6911
练 6912
纱 6913
溪 6914
篑 6915
蜱 6916
惜 6917
跌 6918
啁 6919
溜 6920
饼 6921
勇 6922
柱 6923
惨 6924
陟 6925
安 6926
纛 6927
痍 6928
谨 6929
取 6930
犒 6931
鄄 6932
粟 6933
眨 6934
坤 6935
妤 6936
雉 6937
傩 6938
嘧 6939
咽 6940
愀 6941
簸 6942
赏 6943
箾 6944
龈 6945
放 6946
菅 6947
坚 6948
奠 6949
黢 6950
琴 6951
潞 6952
朝 6953
醪 6954
潍 6955
槊 6956
纯 6957
诋 6958
慢 6959
奸 6960
嘭 6961
揠 6962
昃 6963
革 6964
司 6965
趵 6966
醮 6967
碘 6968
器 6969
澶 6970
知 6971
厢 6972
啷 6973
晔 6974
炜 6975
斐 6976
盏 6977
妻 6978
娣 6979
窈 6980
法 6981
炽 6982
选 6983
埕 6984
击 6985
滤 6986
铖 6987
觎 6988
莩 6989
匏 6990
踅 6991
酸 6992
鹑 6993
闰 6994
毡 6995
祆 6996
身 6997
郊 6998
笄 6999
乖 7000
甩 7001
否 7002
厖 7003
爹 7004
牦 7005
起 7006
钓 7007
浚 7008
忙 7009
冯 7010
樊 7011
识 7012
蹉 7013
鑫 7014
滕 7015
掮 7016
尾 7017
桶 7018
瓢 7019
毫 7020
膊 7021
髌 7022
钗 7023
桼 7024
碲 7025
辨 7026
唉 7027
竲 7028
痰 7029
膻 7030
雩 7031
版 7032
昧 7033
敬 7034
蕨 7035
伴 7036
襀 7037
盘 7038
憷 7039
涑 7040
虽 7041
何 7042
煎 7043
宽 7044
攀 7045
冢 7046
零 7047
樯 7048
哌 7049
瓣 7050
馍 7051
唰 7052
旰 7053
厔 7054
葵 7055
痞 7056
己 7057
靓 7058
凄 7059
服 7060
烤 7061
仮 7062
恨 7063
喳 7064
贯 7065
郞 7066
饪 7067
铄 7068
蠢 7069
薅 7070
齑 7071
褓 7072
黼 7073
涿 7074
磬 7075
匾 7076
沂 7077
镳 7078
浯 7079
悝 7080
淫 7081
捅 7082
箨 7083
瞀 7084
屐 7085
蹁 7086
蹦 7087
槿 7088
类 7089
栉 7090
脘 7091
页 7092
桕 7093
脊 7094
欲 7095
蝽 7096
勃 7097
坷 7098
酶 7099
售 7100
縻 7101
欺 7102
膏 7103
词 7104
兢 7105
楸 7106
娩 7107
陡 7108
尧 7109
豉 7110
桫 7111
滁 7112
麋 7113
罘 7114
朕 7115
耗 7116
汉 7117
登 7118
较 7119
逾 7120
蔫 7121
赳 7122
秭 7123
咫 7124
斑 7125
跚 7126
舒 7127
莞 7128
闾 7129
氤 7130
骸 7131
槩 7132
瓶 7133
餐 7134
瞪 7135
沉 7136
朱 7137
鲣 7138
嫡 7139
恍 7140
衢 7141
轴 7142
杈 7143
赂 7144
津 7145
狠 7146
蚱 7147
疆 7148
捞 7149
婉 7150
固 7151
梶 7152
逋 7153
髡 7154
晓 7155
骶 7156
季 7157
炀 7158
喷 7159
垛 7160
蜂 7161
阝 7162
未 7163
熬 7164
坟 7165
苈 7166
寮 7167
吧 7168
皖 7169
捌 7170
哈 7171
鞍 7172
掘 7173
噙 7174
酊 7175
忄 7176
硼 7177
耕 7178
偎 7179
雎 7180
磴 7181
锺 7182
侃 7183
婚 7184
吗 7185
竺 7186
也 7187
苣 7188
绛 7189
冤 7190
呈 7191
孱 7192
缭 7193
埼 7194
犬 7195
麦 7196
技 7197
夜 7198
杭 7199
佝 7200
莨 7201
毙 7202
贿 7203
猎 7204
桡 7205
氖 7206
叼 7207
哚 7208
濠 7209
湾 7210
全 7211
读 7212
盐 7213
钚 7214
鬘 7215
万 7216
鲠 7217
貂 7218
鋐 7219
拟 7220
牡 7221
蝮 7222
镢 7223
嚯 7224
束 7225
喱 7226
彿 7227
仃 7228
涌 7229
蚯 7230
妩 7231
隹 7232
疃 7233
嬗 7234
喇 7235
攒 7236
听 7237
痛 7238
诗 7239
干 7240
疫 7241
嬴 7242
降 7243
签 7244
丈 7245
髑 7246
劬 7247
诀 7248
坭 7249
咤 7250
池 7251
榼 7252
崃 7253
糸 7254
祸 7255
猜 7256
婿 7257
咛 7258
箴 7259
辚 7260
悄 7261
荒 7262
挑 7263
托 7264
撇 7265
莒 7266
鄜 7267
冒 7268
稹 7269
户 7270
铤 7271
翃 7272
桐 7273
兒 7274
揿 7275
档 7276
犍 7277
铍 7278
招 7279
敲 7280
雳 7281
戏 7282
哗 7283
栱 7284
哆 7285
浙 7286
岂 7287
挝 7288
莲 7289
腩 7290
杬 7291
促 7292
斥 7293
蛱 7294
诓 7295
炖 7296
璘 7297
怵 7298
礽 7299
咬 7300
珐 7301
邺 7302
祀 7303
皇 7304
渑 7305
困 7306
潜 7307
添 7308
如 7309
熙 7310
扇 7311
亭 7312
瘗 7313
舍 7314
皌 7315
诌 7316
虢 7317
欣 7318
掰 7319
棘 7320
毽 7321
卵 7322
疋 7323
整 7324
紫 7325
涘 7326
携 7327
奏 7328
翘 7329
抚 7330
筝 7331
玄 7332
霎 7333
铮 7334
澹 7335
夏 7336
咿 7337
围 7338
猾 7339
逊 7340
糖 7341
漫 7342
及 7343
绢 7344
棱 7345
笈 7346
铯 7347
恼 7348
醣 7349
植 7350
鱼 7351
涓 7352
目 7353
撬 7354
戎 7355
偓 7356
已 7357
打 7358
桦 7359
庇 7360
坪 7361
舾 7362
梧 7363
𫖯 7364
谈 7365
阉 7366
孛 7367
秘 7368
庶 7369
畴 7370
例 7371
幛 7372
下 7373
溅 7374
彗 7375
诏 7376
鸢 7377
邽 7378
瘪 7379
胱 7380
勒 7381
槲 7382
橹 7383
男 7384
治 7385
锒 7386
祯 7387
慌 7388
佥 7389
苔 7390
暴 7391
时 7392
撩 7393
俶 7394
屋 7395
抠 7396
嫘 7397
浔 7398
鲻 7399
窿 7400
炒 7401
髯 7402
簿 7403
峒 7404
觥 7405
午 7406
联 7407
猫 7408
腭 7409
晻 7410
袝 7411
戾 7412
波 7413
啐 7414
戈 7415
麓 7416
汾 7417
茉 7418
埔 7419
蛳 7420
徳 7421
艇 7422
顶 7423
髻 7424
徒 7425
豨 7426
碳 7427
薰 7428
呲 7429
劾 7430
形 7431
渥 7432
羔 7433
枇 7434
模 7435
弁 7436
坏 7437
徊 7438
馗 7439
刨 7440
璀 7441
锤 7442
钤 7443
囔 7444
拦 7445
剐 7446
揸 7447
缚 7448
斯 7449
诒 7450
寂 7451
同 7452
蒴 7453
窑 7454
示 7455
戗 7456
录 7457
恶 7458
培 7459
迦 7460
邮 7461
泊 7462
乌 7463
篌 7464
癸 7465
昔 7466
濛 7467
噻 7468
苋 7469
姥 7470
祖 7471
搬 7472
悠 7473
瓒 7474
嫱 7475
畏 7476
神 7477
湟 7478
扃 7479
桀 7480
谘 7481
虾 7482
玳 7483
斡 7484
寥 7485
攻 7486
忑 7487
僻 7488
国 7489
吠 7490
扦 7491
幹 7492
泛 7493
摈 7494
匼 7495
廉 7496
通 7497
袍 7498
楹 7499
缮 7500
岱 7501
丹 7502
蜗 7503
蓓 7504
卟 7505
喽 7506
蛾 7507
殭 7508
绣 7509
震 7510
棍 7511
潋 7512
葫 7513
嚎 7514
漉 7515
阻 7516
俐 7517
德 7518
様 7519
酝 7520
倒 7521
橱 7522
谯 7523
署 7524
贴 7525
搭 7526
坦 7527
队 7528
死 7529
閟 7530
岭 7531
倪 7532
诜 7533
醐 7534
痊 7535
社 7536
凡 7537
畯 7538
摒 7539
迭 7540
措 7541
媛 7542
蚓 7543
擤 7544
澈 7545
眈 7546
剪 7547
嫣 7548
鹱 7549
娆 7550
凸 7551
厅 7552
臼 7553
枭 7554
炎 7555
烊 7556
掀 7557
洄 7558
僳 7559
觉 7560
逼 7561
皎 7562
酯 7563
怦 7564
叶 7565
统 7566
从 7567
纡 7568
术 7569
径 7570
征 7571
躅 7572
此 7573
甜 7574
践 7575
讲 7576
玲 7577
衣 7578
麾 7579
枥 7580
拈 7581
腮 7582
芩 7583
儆 7584
愕 7585
届 7586
永 7587
哟 7588
虓 7589
宴 7590
夷 7591
梭 7592
紧 7593
瘰 7594
匐 7595
号 7596
况 7597
畋 7598
谜 7599
莽 7600
锣 7601
驽 7602
昱 7603
喟 7604
呀 7605
踬 7606
认 7607
订 7608
黝 7609
们 7610
舱 7611
揭 7612
妾 7613
礼 7614
高 7615
传 7616
香 7617
谬 7618
篆 7619
逮 7620
玑 7621
驿 7622
嗅 7623
五 7624
淹 7625
裨 7626
咕 7627
焖 7628
氚 7629
崤 7630
接 7631
沈 7632
寰 7633
轻 7634
旒 7635
维 7636
麴 7637
枱 7638
挚 7639
句 7640
驾 7641
筷 7642
坂 7643
须 7644
鼩 7645
炳 7646
推 7647
姿 7648
溴 7649
庠 7650
燹 7651
拂 7652
呱 7653
愫 7654
袤 7655
睑 7656
眩 7657
冷 7658
睢 7659
掣 7660
唠 7661
陈 7662
喉 7663
溯 7664
艺 7665
苦 7666
腐 7667
蟹 7668
燃 7669
候 7670
伸 7671
萝 7672
僭 7673
蘖 7674
瘫 7675
书 7676
控 7677
溘 7678
痦 7679
蝣 7680
缩 7681
只 7682
施 7683
鸨 7684
鎏 7685
悕 7686
诵 7687
孬 7688
獾 7689
玩 7690
汪 7691
吁 7692
拄 7693
诟 7694
扰 7695
鼎 7696
珪 7697
橇 7698
隍 7699
姑 7700
迹 7701
骆 7702
崐 7703
勺 7704
倜 7705
盥 7706
剂 7707
圻 7708
荧 7709
荣 7710
疵 7711
酪 7712
稗 7713
幔 7714
井 7715
蛭 7716
泔 7717
定 7718
刈 7719
使 7720
潟 7721
螅 7722
垂 7723
啉 7724
戮 7725
佉 7726
寓 7727
翚 7728
啪 7729
绐 7730
抛 7731
忐 7732
趿 7733
位 7734
螨 7735
迫 7736
爷 7737
碎 7738
廊 7739
啮 7740
柯 7741
酰 7742
烜 7743
粲 7744
求 7745
楞 7746
考 7747
挲 7748
触 7749
荽 7750
荫 7751
疴 7752
遨 7753
瑭 7754
扩 7755
恭 7756
羣 7757
味 7758
缀 7759
享 7760
枣 7761
宠 7762
浊 7763
扪 7764
篥 7765
涉 7766
翔 7767
讫 7768
理 7769
玙 7770
栩 7771
闩 7772
龄 7773
亢 7774
桄 7775
幡 7776
婀 7777
脚 7778
疠 7779
歔 7780
兰 7781
査 7782
镗 7783
涎 7784
霏 7785
待 7786
忻 7787
警 7788
科 7789
脐 7790
琚 7791
真 7792
醚 7793
绡 7794
嶷 7795
胶 7796
峦 7797
箜 7798
丰 7799
痨 7800
衡 7801
锋 7802
宦 7803
感 7804
矮 7805
爨 7806
亟 7807
装 7808
房 7809
捡 7810
乐 7811
胫 7812
彧 7813
葛 7814
氏 7815
捋 7816
戢 7817
牢 7818
园 7819
孓 7820
柃 7821
榄 7822
喺 7823
悛 7824
缢 7825
富 7826
竭 7827
拙 7828
牧 7829
究 7830
濮 7831
皙 7832
问 7833
告 7834
鞅 7835
燚 7836
肴 7837
螭 7838
篁 7839
当 7840
洮 7841
渠 7842
码 7843
辗 7844
慨 7845
崇 7846
诫 7847
意 7848
飓 7849
噬 7850
铐 7851
寡 7852
咨 7853
伺 7854
殓 7855
容 7856
蚁 7857
柏 7858
枧 7859
瑗 7860
挛 7861
绔 7862
月 7863
绾 7864
隘 7865
僖 7866
握 7867
耜 7868
舐 7869
旅 7870
缑 7871
肄 7872
闿 7873
硫 7874
砚 7875
蜚 7876
鍉 7877
晗 7878
阃 7879
衾 7880
蝴 7881
丽 7882
髅 7883
煜 7884
习 7885
窃 7886
芑 7887
谌 7888
俄 7889
桨 7890
芦 7891
泵 7892
企 7893
粽 7894
揣 7895
领 7896
肱 7897
尼 7898
滦 7899
椽 7900
癜 7901
甄 7902
偿 7903
丸 7904
涞 7905
铜 7906
噜 7907
倬 7908
珣 7909
圜 7910
墅 7911
撂 7912
栀 7913
评 7914
蘑 7915
扬 7916
挨 7917
殇 7918
酺 7919
鲛 7920
啥 7921
表 7922
盈 7923
啊 7924
怔 7925
艮 7926
徽 7927
撸 7928
淯 7929
茈 7930
硚 7931
桢 7932
魍 7933
潸 7934
仄 7935
鹭 7936
沅 7937
操 7938
炭 7939
砝 7940
之 7941
讷 7942
吔 7943
疰 7944
葚 7945
夭 7946
跶 7947
蘼 7948
鲩 7949
滴 7950
菘 7951
滨 7952
加 7953
倾 7954
体 7955
茕 7956
髀 7957
雅 7958
欠 7959
崧 7960
囤 7961
守 7962
辂 7963
棂 7964
捶 7965
扛 7966
铠 7967
铩 7968
京 7969
洛 7970
娄 7971
痿 7972
箱 7973
驮 7974
郃 7975
谣 7976
晴 7977
纲 7978
谋 7979
煌 7980
炼 7981
卤 7982
界 7983
遠 7984
周 7985
驩 7986
肖 7987
跖 7988
莳 7989
级 7990
咣 7991
啕 7992
忤 7993
临 7994
募 7995
睿 7996
冥 7997
久 7998
巍 7999
堇 8000
洽 8001
郎 8002
董 8003
毒 8004
醉 8005
诶 8006
旺 8007
蛉 8008
规 8009
琶 8010
捉 8011
尥 8012
拗 8013
歆 8014
刀 8015
跆 8016
锢 8017
侏 8018
拳 8019
饨 8020
剥 8021
俊 8022
嗤 8023
穑 8024
地 8025
情 8026
憔 8027
惹 8028
奢 8029
铭 8030
至 8031
浐 8032
祎 8033
帆 8034
楮 8035
邬 8036
弛 8037
篮 8038
兮 8039
慧 8040
腆 8041
碴 8042
挂 8043
计 8044
豚 8045
滑 8046
褭 8047
酞 8048
符 8049
彼 8050
涔 8051
峪 8052
缓 8053
剀 8054
福 8055
叮 8056
失 8057
隅 8058
怄 8059
扳 8060
泰 8061
娌 8062
孙 8063
彬 8064
毁 8065
蛲 8066
萱 8067
泻 8068
舀 8069
瞅 8070
咆 8071
祜 8072
枋 8073
憩 8074
文 8075
鹄 8076
槎 8077
忆 8078
裢 8079
兑 8080
明 8081
遥 8082
窍 8083
吃 8084
启 8085
郅 8086
吒 8087
亿 8088
叩 8089
奄 8090
垡 8091
椿 8092
篡 8093
聘 8094
窖 8095
垩 8096
购 8097
褥 8098
豸 8099
咦 8100
眦 8101
敏 8102
鼐 8103
昉 8104
顽 8105
琊 8106
砌 8107
僮 8108
乱 8109
瞒 8110
撑 8111
羲 8112
纳 8113
赞 8114
橛 8115
嵩 8116
陀 8117
楔 8118
牛 8119
鹊 8120
帽 8121
丫 8122
兜 8123
砰 8124
濡 8125
好 8126
腿 8127
靶 8128
木 8129
唸 8130
纹 8131
裹 8132
优 8133
猲 8134
焯 8135
岘 8136
辱 8137
丞 8138
查 8139
秽 8140
胀 8141
鳖 8142
岈 8143
喒 8144
默 8145
见 8146
纥 8147
泚 8148
驳 8149
铃 8150
萋 8151
筱 8152
蛏 8153
琲 8154
鸵 8155
这 8156
链 8157
奭 8158
別 8159
软 8160
盲 8161
黛 8162
纤 8163
狡 8164
贽 8165
贻 8166
鳏 8167
篓 8168
滢 8169
嵌 8170
臭 8171
谥 8172
夯 8173
韬 8174
惺 8175
检 8176
峨 8177
胛 8178
恫 8179
构 8180
鹂 8181
刺 8182
唬 8183
捯 8184
由 8185
志 8186
达 8187
梢 8188
歉 8189
淳 8190
般 8191
恐 8192
獗 8193
央 8194
喔 8195
蟀 8196
伞 8197
姮 8198
痈 8199
俾 8200
髫 8201
蜒 8202
愧 8203
呆 8204
桤 8205
型 8206
四 8207
龋 8208
鳔 8209
骗 8210
砷 8211
泷 8212
猷 8213
茯 8214
茁 8215
倨 8216
乎 8217
奕 8218
鹅 8219
痉 8220
奥 8221
辙 8222
冲 8223
赅 8224
泅 8225
羰 8226
悲 8227
焘 8228
紊 8229
卖 8230
鳐 8231
菊 8232
辐 8233
嘻 8234
囿 8235
凫 8236
纵 8237
咝 8238
箧 8239
钬 8240
辕 8241
鹜 8242
诔 8243
泐 8244
世 8245
镖 8246
骄 8247
寸 8248
睐 8249
氲 8250
牟 8251
尔 8252
椭 8253
芨 8254
险 8255
耳 8256
牾 8257
蚂 8258
丙 8259
洋 8260
燊 8261
啵 8262
媾 8263
碟 8264
陇 8265
扥 8266
势 8267
慷 8268
笋 8269
泥 8270
罕 8271
沤 8272
葡 8273
蠡 8274
产 8275
凉 8276
籽 8277
胞 8278
哦 8279
侠 8280
晚 8281
杯 8282
邗 8283
甑 8284
胁 8285
历 8286
嘏 8287
喘 8288
霉 8289
仇 8290
鉴 8291
猛 8292
纂 8293
决 8294
阏 8295
饯 8296
宣 8297
象 8298
儿 8299
猗 8300
瀑 8301
荚 8302
满 8303
酷 8304
鼬 8305
旁 8306
屡 8307
呷 8308
驻 8309
薮 8310
鹏 8311
馋 8312
鹪 8313
纠 8314
轶 8315
渺 8316
镁 8317
汐 8318
谅 8319
甫 8320
储 8321
抹 8322
杨 8323
裳 8324
歙 8325
鏊 8326
断 8327
狂 8328
雒 8329
妧 8330
巴 8331
嘟 8332
筵 8333
舫 8334
刃 8335
郿 8336
清 8337
巿 8338
苕 8339
内 8340
暾 8341
垠 8342
戌 8343
溟 8344
剋 8345
葶 8346
蔺 8347
岖 8348
邕 8349
卸 8350
基 8351
馒 8352
出 8353
柞 8354
溍 8355
吨 8356
蜥 8357
炟 8358
徂 8359
桂 8360
铪 8361
庖 8362
誉 8363
嗡 8364
忘 8365
螃 8366
胯 8367
铨 8368
酹 8369
眚 8370
跤 8371
汁 8372
针 8373
钏 8374
雀 8375
限 8376
面 8377
蛐 8378
黃 8379
脩 8380
叛 8381
枷 8382
故 8383
编 8384
勐 8385
汗 8386
胃 8387
洗 8388
洹 8389
髦 8390
宏 8391
聊 8392
淠 8393
欧 8394
畈 8395
饬 8396
秦 8397
莓 8398
努 8399
炔 8400
匠 8401
际 8402
蕉 8403
蝇 8404
橥 8405
注 8406
承 8407
琨 8408
又 8409
玉 8410
缸 8411
怒 8412
遏 8413
坍 8414
痹 8415
叵 8416
氟 8417
脂 8418
昭 8419
宕 8420
盅 8421
惩 8422
馁 8423
绕 8424
遢 8425
扫 8426
蔡 8427
阎 8428
葳 8429
殂 8430
潢 8431
每 8432
靖 8433
主 8434
闸 8435
涖 8436
第 8437
蜜 8438
能 8439
衄 8440
鹰 8441
俘 8442
豪 8443
人 8444
痱 8445
蓑 8446
所 8447
绨 8448
望 8449
减 8450
魔 8451
释 8452
逑 8453
帏 8454
遘 8455
许 8456
誓 8457
牤 8458
刷 8459
扒 8460
峻 8461
昕 8462
轩 8463
嬷 8464
窗 8465
蹄 8466
骰 8467
湓 8468
堨 8469
婧 8470
骖 8471
酋 8472
闷 8473
滞 8474
郧 8475
朴 8476
倡 8477
腴 8478
褴 8479
极 8480
佾 8481
煨 8482
肓 8483
亮 8484
堕 8485
对 8486
秋 8487
铅 8488
擅 8489
鳃 8490
保 8491
弓 8492
趄 8493
翦 8494
涛 8495
盗 8496
道 8497
遮 8498
屿 8499
绥 8500
部 8501
付 8502
诮 8503
粘 8504
溏 8505
啬 8506
贫 8507
轼 8508
猩 8509
薯 8510
胳 8511
抻 8512
燎 8513
笫 8514
鸂 8515
蓊 8516
峋 8517
搡 8518
磡 8519
昌 8520
妈 8521
玺 8522
叫 8523
済 8524
彩 8525
孀 8526
囧 8527
绒 8528
驸 8529
架 8530
斛 8531
资 8532
碣 8533
濞 8534
吡 8535
作 8536
晏 8537
栊 8538
蹿 8539
荩 8540
尖 8541
依 8542
氍 8543
炝 8544
抡 8545
中 8546
潦 8547
域 8548
兼 8549
捎 8550
怩 8551
正 8552
刮 8553
搪 8554
鸿 8555
俺 8556
牯 8557
瞎 8558
鬼 8559
惠 8560
沛 8561
浃 8562
釜 8563
拴 8564
冇 8565
暎 8566
魉 8567
痘 8568
盔 8569
枚 8570
杲 8571
郛 8572
僚 8573
足 8574
岿 8575
榖 8576
蛊 8577
绯 8578
村 8579
鹃 8580
钼 8581
拓 8582
苫 8583
锄 8584
跎 8585
碰 8586
钝 8587
淆 8588
鳟 8589
浓 8590
桷 8591
裔 8592
邃 8593
恂 8594
楙 8595
鳞 8596
褛 8597
钌 8598
搀 8599
坊 8600
娘 8601
鄯 8602
袈 8603
匡 8604
厦 8605
艘 8606
障 8607
舂 8608
蹼 8609
材 8610
胡 8611
凖 8612
憋 8613
睥 8614
窦 8615
雇 8616
個 8617
籀 8618
饥 8619
价 8620
笞 8621
鞴 8622
树 8623
揖 8624
派 8625
垄 8626
檬 8627
眠 8628
偌 8629
闯 8630
姘 8631
少 8632
破 8633
怿 8634
扼 8635
恽 8636
岔 8637
亲 8638
垕 8639
踱 8640
泳 8641
截 8642
烽 8643
够 8644
武 8645
差 8646
声 8647
可 8648
绫 8649
巅 8650
邯 8651
椎 8652
畀 8653
常 8654
沸 8655
榧 8656
忡 8657
妫 8658
皮 8659
讯 8660
铣 8661
轾 8662
衙 8663
蒙 8664
蕃 8665
腓 8666
坐 8667
鞘 8668
榻 8669
霈 8670
粳 8671
枹 8672
薨 8673
胆 8674
龙 8675
绺 8676
挹 8677
诨 8678
译 8679
但 8680
半 8681
辩 8682
芊 8683
变 8684
翻 8685
尹 8686
酬 8687
暧 8688
姝 8689
貘 8690
墓 8691
匙 8692
墀 8693
芗 8694
妲 8695
狮 8696
岫 8697
谔 8698
鞭 8699
婶 8700
踏 8701
讵 8702
幼 8703
晕 8704
瑞 8705
供 8706
朵 8707
奘 8708
咩 8709
臆 8710
帖 8711
戽 8712
瘿 8713
段 8714
傅 8715
枞 8716
属 8717
野 8718
芫 8719
诣 8720
钐 8721
堀 8722
试 8723
衍 8724
馏 8725
龇 8726
讧 8727
妒 8728
驴 8729
著 8730
槭 8731
洧 8732
氾 8733
孵 8734
狎 8735
歩 8736
愎 8737
过 8738
赋 8739
阳 8740
谕 8741
盾 8742
救 8743
饱 8744
橡 8745
蒲 8746
姐 8747
厕 8748
铚 8749
套 8750
弗 8751
騕 8752
雷 8753
裁 8754
拌 8755
鼻 8756
搐 8757
均 8758
蓣 8759
卢 8760
瘌 8761
氩 8762
谰 8763
缙 8764
栾 8765
迨 8766
浣 8767
萨 8768
污 8769
杏 8770
髽 8771
秀 8772
湉 8773
粪 8774
展 8775
槻 8776
垓 8777
赫 8778
惮 8779
薷 8780
迈 8781
塾 8782
恺 8783
泸 8784
绳 8785
渍 8786
遇 8787
洑 8788
晞 8789
枸 8790
无 8791
逍 8792
珰 8793
纣 8794
罩 8795
嶃 8796
瑚 8797
裙 8798
唱 8799
於 8800
伟 8801
骓 8802
函 8803
瘤 8804
僆 8805
鞣 8806
柚 8807
席 8808
峄 8809
鄱 8810
抔 8811
物 8812
穸 8813
懊 8814
稼 8815
叉 8816
拇 8817
沆 8818
饰 8819
厘 8820
傈 8821
廷 8822
式 8823
夔 8824
督 8825
雍 8826
晨 8827
剿 8828
赶 8829
疖 8830
砜 8831
归 8832
徙 8833
阚 8834
女 8835
营 8836
邅 8837
做 8838
伊 8839
筜 8840
蛎 8841
顾 8842
瘸 8843
洪 8844
钕 8845
觯 8846
政 8847
劝 8848
撮 8849
氛 8850
漾 8851
址 8852
帼 8853
增 8854
瞋 8855
肯 8856
躁 8857
糗 8858
美 8859
炸 8860
饽 8861
挎 8862
挫 8863
枢 8864
铉 8865
奖 8866
槌 8867
绮 8868
擂 8869
虬 8870
钽 8871
胍 8872
凌 8873
辟 8874
虹 8875
铂 8876
杂 8877
砗 8878
潇 8879
合 8880
吭 8881
迷 8882
滘 8883
弹 8884
痤 8885
蛄 8886
觱 8887
杳 8888
嘬 8889
偕 8890
赘 8891
烩 8892
孖 8893
钉 8894
钪 8895
睬 8896
撵 8897
笠 8898
俅 8899
锯 8900
呛 8901
欹 8902
珈 8903
浑 8904
彪 8905
姊 8906
拆 8907
雄 8908
钴 8909
壑 8910
卧 8911
痧 8912
澴 8913
长 8914
船 8915
六 8916
继 8917
窨 8918
燥 8919
膦 8920
镝 8921
裸 8922
办 8923
廆 8924
宅 8925
蓉 8926
娑 8927
猪 8928
阁 8929
蟆 8930
恢 8931
讥 8932
怏 8933
笕 8934
瞽 8935
赤 8936
岁 8937
禺 8938
昀 8939
她 8940
钫 8941
慝 8942
滩 8943
跃 8944
贰 8945
巳 8946
寿 8947
铙 8948
朊 8949
箦 8950
丧 8951
止 8952
跺 8953
缉 8954
桅 8955
论 8956
摽 8957
状 8958
驷 8959
咂 8960
铢 8961
绎 8962
叨 8963
遁 8964
锨 8965
里 8966
缰 8967
嵊 8968
膘 8969
帕 8970
泱 8971
鳜 8972
嫒 8973
仅 8974
捕 8975
徵 8976
媪 8977
袁 8978
裕 8979
佻 8980
末 8981
笔 8982
啲 8983
掞 8984
彭 8985
氢 8986
寻 8987
骋 8988
噤 8989
棣 8990
疣 8991
豳 8992
祠 8993
衩 8994
匀 8995
王 8996
庭 8997
亶 8998
篇 8999
铎 9000
咖 9001
禛 9002
艹 9003
哐 9004
系 9005
娇 9006
窄 9007
髓 9008
阱 9009
懿 9010
右 9011
离 9012
穴 9013
渣 9014
邨 9015
肸 9016
杞 9017
肚 9018
幕 9019
隼 9020
宋 9021
煤 9022
镋 9023
耘 9024
激 9025
痣 9026
吽 9027
株 9028
筐 9029
贸 9030
尕 9031
矣 9032
瑄 9033
油 9034
満 9035
漆 9036
霞 9037
咏 9038
珮 9039
仡 9040
眶 9041
醛 9042
票 9043
鼓 9044
突 9045
瓯 9046
尬 9047
西 9048
潴 9049
傍 9050
蜘 9051
蛀 9052
筮 9053
因 9054
谳 9055
跹 9056
鲑 9057
惑 9058
肋 9059
螟 9060
霓 9061
眼 9062
郇 9063
宙 9064
畲 9065
翟 9066
诧 9067
颅 9068
跷 9069
淅 9070
楦 9071
屯 9072
走 9073
羸 9074
斤 9075
畔 9076
忠 9077
肥 9078
实 9079
凋 9080
褶 9081
摆 9082
熊 9083
篝 9084
乃 9085
绑 9086
沟 9087
瞿 9088
舶 9089
甘 9090
事 9091
瑛 9092
黯 9093
璩 9094
剧 9095
孳 9096
祓 9097
天 9098
岑 9099
拾 9100
翁 9101
瞟 9102
昆 9103
弢 9104
摛 9105
义 9106
咸 9107
伪 9108
瑱 9109
橄 9110
丘 9111
铧 9112
怖 9113
终 9114
膨 9115
扮 9116
猕 9117
琬 9118
群 9119
叁 9120
狄 9121
烹 9122
蚝 9123
儒 9124
援 9125
掾 9126
裂 9127
藓 9128
鲁 9129
潺 9130
晷 9131
消 9132
觊 9133
诡 9134
却 9135
弼 9136
脰 9137
铷 9138
册 9139
懵 9140
啜 9141
涣 9142
扈 9143
垚 9144
森 9145
赵 9146
垫 9147
怼 9148
峁 9149
惚 9150
缄 9151
昇 9152
耍 9153
异 9154
朐 9155
枕 9156
契 9157
祈 9158
骜 9159
羯 9160
豁 9161
贲 9162
哔 9163
祁 9164
螫 9165
锆 9166
孕 9167
忏 9168
掏 9169
昵 9170
哪 9171
鹞 9172
疍 9173
蠲 9174
恹 9175
狩 9176
憾 9177
悫 9178
弦 9179
脾 9180
爸 9181
奔 9182
懂 9183
爿 9184
帙 9185
襦 9186
除 9187
景 9188
蹩 9189
歇 9190
抄 9191
牌 9192
浦 9193
榭 9194
刁 9195
个 9196
嗨 9197
凤 9198
瑮 9199
珏 9200
惦 9201
斝 9202
监 9203
土 9204
陋 9205
眉 9206
谎 9207
抑 9208
旻 9209
倩 9210
蟑 9211
忍 9212
瓜 9213
康 9214
晾 9215
偏 9216
麇 9217
缱 9218
唏 9219
杪 9220
戥 9221
坳 9222
皲 9223
拘 9224
簋 9225
怆 9226
负 9227
陬 9228
素 9229
锐 9230
苘 9231
菀 9232
免 9233
嫌 9234
靡 9235
颧 9236
苷 9237
策 9238
浠 9239
窾 9240
么 9241
壁 9242
荟 9243
愣 9244
砫 9245
巻 9246
旌 9247
矢 9248
婺 9249
绝 9250
线 9251
奂 9252
袋 9253
喻 9254
贡 9255
鍒 9256
逛 9257
疟 9258
筇 9259
俱 9260
缅 9261
骟 9262
岜 9263
睚 9264
蜊 9265
铝 9266
闭 9267
麈 9268
趺 9269
锜 9270
彻 9271
缟 9272
甭 9273
苞 9274
钥 9275
灼 9276
銮 9277
塍 9278
淙 9279
鸷 9280
撼 9281
浒 9282
或 9283
荇 9284
要 9285
纺 9286
师 9287
裇 9288
颚 9289
汜 9290
驰 9291
椹 9292
牂 9293
侪 9294
樉 9295
扎 9296
吞 9297
蕤 9298
垦 9299
茜 9300
泌 9301
艋 9302
次 9303
珙 9304
建 9305
切 9306
盱 9307
簌 9308
硅 9309
概 9310
袒 9311
厚 9312
馐 9313
橐 9314
涵 9315
抢 9316
兖 9317
颠 9318
扑 9319
渐 9320
底 9321
獒 9322
瘴 9323
喝 9324
期 9325
踪 9326
镭 9327
糕 9328
翡 9329
养 9330
顷 9331
蚜 9332
琛 9333
县 9334
槽 9335
滹 9336
钙 9337
叙 9338
囵 9339
煮 9340
杵 9341
铛 9342
丢 9343
任 9344
咹 9345
莎 9346
请 9347
喂 9348
旬 9349
枫 9350
颊 9351
圄 9352
霍 9353
耆 9354
阅 9355
嵴 9356
鱿 9357
倭 9358
咎 9359
眸 9360
羽 9361
二 9362
菉 9363
巩 9364
柑 9365
赧 9366
暮 9367
损 9368
隻 9369
捧 9370
轨 9371
按 9372
啄 9373
聒 9374
炅 9375
湣 9376
詹 9377
柒 9378
恃 9379
掬 9380
爽 9381
料 9382
歹 9383
刿 9384
完 9385
餮 9386
是 9387
榈 9388
透 9389
粗 9390
俛 9391
音 9392
份 9393
置 9394
蓬 9395
缛 9396
制 9397
淼 9398
冏 9399
妆 9400
钣 9401
怡 9402
弇 9403
砥 9404
蜴 9405
衫 9406
虐 9407
玹 9408
闼 9409
旋 9410
嶝 9411
涟 9412
龌 9413
遛 9414
郢 9415
褡 9416
薪 9417
邓 9418
嫁 9419
叔 9420
漠 9421
藿 9422
臾 9423
早 9424
痴 9425
囊 9426
俩 9427
蓦 9428
渗 9429
锟 9430
朦 9431
附 9432
赴 9433
灾 9434
汛 9435
埸 9436
吾 9437
栲 9438
翰 9439
磔 9440
汰 9441
椋 9442
搴 9443
韧 9444
撒 9445
纽 9446
笙 9447
坼 9448
伷 9449
烬 9450
瑶 9451
陷 9452
琉 9453
湖 9454
熹 9455
觇 9456
侥 9457
往 9458
牲 9459
租 9460
矾 9461
祉 9462
刘 9463
复 9464
阂 9465
刊 9466
苻 9467
步 9468
蓖 9469
喙 9470
畜 9471
让 9472
雱 9473
噫 9474
钜 9475
胥 9476
蹬 9477
捻 9478
芽 9479
掳 9480
旧 9481
甲 9482
搽 9483
哧 9484
骢 9485
吼 9486
口 9487
倚 9488
肽 9489
憨 9490
竦 9491
棚 9492
黍 9493
砾 9494
愈 9495
昊 9496
阑 9497
魂 9498
持 9499
献 9500
凳 9501
厩 9502
佚 9503
鲱 9504
粮 9505
鹋 9506
姬 9507
抉 9508
提 9509
蛇 9510
籓 9511
盼 9512
裱 9513
暄 9514
妞 9515
喑 9516
惶 9517
窥 9518
橘 9519
绞 9520
菁 9521
饭 9522
猞 9523
芘 9524
搧 9525
呔 9526
肼 9527
亨 9528
谑 9529
椅 9530
莹 9531
校 9532
颈 9533
匕 9534
税 9535
年 9536
脆 9537
郦 9538
拿 9539
改 9540
轸 9541
掩 9542
芒 9543
觑 9544
莴 9545
伢 9546
腕 9547
阴 9548
眇 9549
责 9550
青 9551
钠 9552
僵 9553
庹 9554
具 9555
穗 9556
逃 9557
源 9558
咻 9559
今 9560
绻 9561
发 9562
嗝 9563
逆 9564
侈 9565
抓 9566
羌 9567
款 9568
耧 9569
锰 9570
罢 9571
跗 9572
汞 9573
赚 9574
累 9575
掷 9576
啫 9577
膳 9578
捭 9579
禀 9580
崂 9581
掴 9582
讶 9583
瑾 9584
账 9585
挈 9586
鹬 9587
鳎 9588
骛 9589
釉 9590
矬 9591
潮 9592
病 9593
日 9594
憍 9595
镍 9596
蜛 9597
壤 9598
葑 9599
聚 9600
灭 9601
立 9602
怙 9603
诙 9604
躲 9605
泡 9606
缺 9607
横 9608
违 9609
蛛 9610
鹮 9611
鲐 9612
茌 9613
罚 9614
畦 9615
厍 9616
劭 9617
拐 9618
萍 9619
债 9620
偈 9621
镛 9622
踽 9623
趋 9624
扭 9625
椒 9626
痔 9627
史 9628
称 9629
剁 9630
舢 9631
黠 9632
执 9633
饵 9634
欤 9635
骥 9636
蓄 9637
邈 9638
疚 9639
吓 9640
苌 9641
蜢 9642
桓 9643
煦 9644
襁 9645
垃 9646
姓 9647
送 9648
柜 9649
怠 9650
蚍 9651
殴 9652
炕 9653
蛙 9654
禁 9655
捍 9656
颀 9657
猬 9658
岢 9659
纩 9660
妨 9661
阡 9662
率 9663
蒋 9664
寐 9665
孚 9666
想 9667
洁 9668
沮 9669
潲 9670
杮 9671
镯 9672
虞 9673
鶒 9674
椐 9675
锈 9676
顗 9677
仑 9678
额 9679
掼 9680
耿 9681
谍 9682
沃 9683
惊 9684
碉 9685
皓 9686
峯 9687
炮 9688
拼 9689
得 9690
帅 9691
蜎 9692
莠 9693
近 9694
诩 9695
愉 9696
枯 9697
移 9698
菡 9699
菪 9700
珀 9701
湎 9702
瓿 9703
名 9704
妇 9705
再 9706
傺 9707
蚬 9708
荡 9709
孽 9710
荜 9711
绉 9712
刽 9713
留 9714
赐 9715
光 9716
睟 9717
遂 9718
琮 9719
俟 9720
岛 9721
蛹 9722
蒿 9723
钦 9724
麻 9725
纫 9726
杷 9727
宿 9728
蝎 9729
湃 9730
惬 9731
卯 9732
诠 9733
谷 9734
摞 9735
螈 9736
然 9737
盂 9738
萁 9739
灰 9740
畊 9741
烈 9742
俸 9743
衿 9744
龟 9745
谭 9746
唳 9747
楀 9748
痪 9749
曳 9750
羿 9751
罂 9752
脱 9753
廿 9754
洵 9755
湿 9756
鸽 9757
跛 9758
挡 9759
议 9760
拍 9761
溺 9762
垅 9763
瞳 9764
笑 9765
乓 9766
噼 9767
沿 9768
俣 9769
灏 9770
赈 9771
砭 9772
造 9773
标 9774
罅 9775
鳣 9776
翥 9777
铬 9778
诞 9779
酌 9780
佟 9781
瑀 9782
眬 9783
璁 9784
拣 9785
颤 9786
笏 9787
蝌 9788
蛟 9789
馕 9790
伐 9791
热 9792
嚼 9793
鼢 9794
謩 9795
趟 9796
恬 9797
搅 9798
伫 9799
杌 9800
琐 9801
崽 9802
苗 9803
其 9804
熄 9805
在 9806
泾 9807
毓 9808
琥 9809
孤 9810
扞 9811
恪 9812
埙 9813
昴 9814
靥 9815
酗 9816
焙 9817
辛 9818
觞 9819
平 9820
椤 9821
耦 9822
黜 9823
寇 9824
醍 9825
耶 9826
撰 9827
曜 9828
谂 9829
烛 9830
旦 9831
爪 9832
絺 9833
欢 9834
圈 9835
臂 9836
谆 9837
荏 9838
巫 9839
嵋 9840
霸 9841
叆 9842
唆 9843
澧 9844
焦 9845
窭 9846
剜 9847
菇 9848
锑 9849
枳 9850
娈 9851
侗 9852
橙 9853
泯 9854
茼 9855
遭 9856
蟥 9857
捱 9858
挤 9859
蹊 9860
暹 9861
珠 9862
驼 9863
嗷 9864
贪 9865
扔 9866
硒 9867
沣 9868
鸡 9869
蕖 9870
仓 9871
邳 9872
赝 9873
嵛 9874
典 9875
桧 9876
茏 9877
缒 9878
蕻 9879
闽 9880
独 9881
骨 9882
鲼 9883
详 9884
脉 9885
腥 9886
拯 9887
婕 9888
杜 9889
俑 9890
经 9891
距 9892
僧 9893
辅 9894
骂 9895
睛 9896
靴 9897
舣 9898
饿 9899
幻 9900
悱 9901
先 9902
菲 9903
榔 9904
邑 9905
夕 9906
吏 9907
蕾 9908
犯 9909
磲 9910
鹌 9911
鹫 9912
耐 9913
梯 9914
鸬 9915
榛 9916
笛 9917
睡 9918
歪 9919
遍 9920
飒 9921
笃 9922
蓝 9923
于 9924
欸 9925
为 9926
琎 9927
宁 9928
直 9929
漕 9930
烙 9931
捏 9932
馅 9933
诺 9934
励 9935
佘 9936
噩 9937
阪 9938
梿 9939
杻 9940
覃 9941
瑷 9942
观 9943
循 9944
泪 9945
集 9946
瘠 9947
尽 9948
虎 9949
来 9950
衮 9951
芷 9952
卓 9953
擒 9954
锶 9955
玻 9956
缝 9957
瀬 9958
缯 9959
嫖 9960
运 9961
厣 9962
顺 9963
悼 9964
苑 9965
恤 9966
囡 9967
锻 9968
舁 9969
粼 9970
丑 9971
字 9972
酽 9973
鲜 9974
豹 9975
厝 9976
癣 9977
蚌 9978
退 9979
戡 9980
云 9981
颞 9982
腻 9983
呗 9984
沼 9985
骤 9986
崭 9987
扯 9988
怍 9989
存 9990
害 9991
色 9992
淘 9993
嗦 9994
獠 9995
砸 9996
镜 9997
毹 9998
鲀 9999
寤 10000
桥 10001
嘞 10002
哙 10003
织 10004
嗒 10005
麂 10006
偁 10007
苎 10008
燧 10009
鄂 10010
翌 10011
酚 10012
咄 10013
嗥 10014
蒸 10015
虚 10016
囗 10017
条 10018
鹕 10019
挖 10020
矿 10021
冻 10022
佰 10023
洲 10024
漓 10025
镱 10026
尝 10027
苜 10028
铼 10029
结 10030
侵 10031
星 10032
埠 10033
峤 10034
晒 10035
睦 10036
搓 10037
時 10038
铫 10039
偃 10040
氦 10041
呻 10042
淦 10043
缧 10044
脑 10045
英 10046
案 10047
生 10048
记 10049
艰 10050
砖 10051
药 10052
宪 10053
涩 10054
鞠 10055
潆 10056
郭 10057
宵 10058
砀 10059
岀 10060
赃 10061
蛤 10062
粢 10063
驶 10064
垤 10065
逐 10066
芳 10067
螂 10068
超 10069
锔 10070
箓 10071
笤 10072
弱 10073
畸 10074
分 10075
攸 10076
蛸 10077
烷 10078
昨 10079
羚 10080
芍 10081
卲 10082
噔 10083
飖 10084
蜍 10085
崦 10086
嬛 10087
仍 10088
柳 10089
鹗 10090
乙 10091
嫂 10092
骚 10093
巾 10094
憬 10095
伃 10096
孜 10097
碌 10098
祗 10099
汊 10100
袄 10101
诚 10102
剡 10103
锷 10104
益 10105
箕 10106
瘾 10107
鹣 10108
瘩 10109
矸 10110
灸 10111
勖 10112
括 10113
呢 10114
漯 10115
罟 10116
嚓 10117
焗 10118
赛 10119
伶 10120
垢 10121
擘 10122
镠 10123
惰 10124
贬 10125
捺 10126
犁 10127
艉 10128
佞 10129
配 10130
耙 10131
猢 10132
遗 10133
豊 10134
急 10135
蓟 10136
泓 10137
屑 10138
焊 10139
筲 10140
缈 10141
柔 10142
蜀 10143
珺 10144
怕 10145
淡 10146
靛 10147
载 10148
堎 10149
懒 10150
邸 10151
惇 10152
粥 10153
斫 10154
漼 10155
簇 10156
修 10157
梏 10158
肟 10159
鲸 10160
呐 10161
游 10162
廖 10163
收 10164
鳅 10165
覆 10166
琳 10167
熵 10168
翱 10169
民 10170
飨 10171
螳 10172
媳 10173
辖 10174
旯 10175
榴 10176
瑰 10177
嗯 10178
渤 10179
熔 10180
暝 10181
柘 10182
鬟 10183
斋 10184
夸 10185
氰 10186
炫 10187
押 10188
撺 10189
烁 10190
偶 10191
貅 10192
冀 10193
胎 10194
糊 10195
润 10196
各 10197
垌 10198
插 10199
嶙 10200
筋 10201
住 10202
酆 10203
镰 10204
工 10205
嗲 10206
铱 10207
暖 10208
茔 10209
髂 10210
挺 10211
瞑 10212
伤 10213
忌 10214
萜 10215
普 10216
爵 10217
稍 10218
瓠 10219
崛 10220
磐 10221
投 10222
畅 10223
缕 10224
楯 10225
悒 10226
判 10227
芰 10228
遒 10229
黩 10230
迪 10231
蝾 10232
腈 10233
才 10234
峙 10235
悟 10236
禩 10237
惋 10238
局 10239
恋 10240
斓 10241
犹 10242
绶 10243
亩 10244
嵘 10245
汆 10246
狸 10247
迸 10248
妣 10249
琢 10250
赣 10251
疬 10252
穿 10253
焓 10254
跳 10255
匪 10256
鹦 10257
璠 10258
蔸 10259
百 10260
愁 10261
芋 10262
谚 10263
哩 10264
轧 10265
祇 10266
泬 10267
瘳 10268
列 10269
簃 10270
谦 10271
垴 10272
啤 10273
滇 10274
饮 10275
瞰 10276
獭 10277
倏 10278
肿 10279
宜 10280
涮 10281
数 10282
屌 10283
濒 10284
上 10285
褐 10286
菟 10287
瘅 10288
蝙 10289
羡 10290
硖 10291
背 10292
歃 10293
红 10294
血 10295
混 10296
橞 10297
樽 10298
纶 10299
圭 10300
冗 10301
竑 10302
玥 10303
它 10304
怎 10305
薜 10306
殆 10307
看 10308
剖 10309
棠 10310
瘙 10311
裤 10312
篙 10313
带 10314
助 10315
廓 10316
库 10317
绅 10318
濩 10319
等 10320
魑 10321
酿 10322
阆 10323
弑 10324
悖 10325
姹 10326
傀 10327
股 10328
贝 10329
相 10330
茑 10331
荔 10332
钲 10333
致 10334
沦 10335
另 10336
桑 10337
佳 10338
班 10339
昼 10340
埂 10341
箐 10342
岵 10343
涨 10344
柩 10345
两 10346
勰 10347
氮 10348
稽 10349
匝 10350
瘀 10351
缔 10352
鹉 10353
雕 10354
蛮 10355
镞 10356
謇 10357
豇 10358
秫 10359
赢 10360
向 10361
石 10362
迥 10363
受 10364
嚭 10365
双 10366
锚 10367
辉 10368
谠 10369
吟 10370
湔 10371
市 10372
娥 10373
跽 10374
处 10375
厂 10376
笸 10377
悭 10378
孥 10379
嘀 10380
恻 10381
皱 10382
妙 10383
栽 10384
瓷 10385
稔 10386
碧 10387
哽 10388
徨 10389
邋 10390
息 10391
樨 10392
鼾 10393
拱 10394
谟 10395
墡 10396
匆 10397
庐 10398
鹿 10399
镣 10400
唯 10401
州 10402
筒 10403
性 10404
髋 10405
哄 10406
镡 10407
菩 10408
姻 10409
聪 10410
催 10411
醌 10412
唢 10413
雾 10414
堂 10415
芝 10416
擢 10417
匈 10418
悸 10419
钢 10420
徉 10421
渡 10422
誊 10423
军 10424
铸 10425
和 10426
沄 10427
兽 10428
短 10429
育 10430
韪 10431
邀 10432
谴 10433
耋 10434
浩 10435
胝 10436
猴 10437
黧 10438
弊 10439
捂 10440
癖 10441
堆 10442
伧 10443
割 10444
引 10445
鼙 10446
逻 10447
堪 10448
首 10449
瘦 10450
硐 10451
郑 10452
凑 10453
睨 10454
骠 10455
佼 10456
篦 10457
贵 10458
铌 10459
竖 10460
莅 10461
陕 10462
飙 10463
黏 10464
镆 10465
仨 10466
马 10467
埜 10468
阇 10469
耒 10470
妃 10471
讨 10472
吊 10473
踊 10474
弥 10475
梅 10476
坑 10477
赡 10478
坛 10479
苹 10480
察 10481
俚 10482
濑 10483
块 10484
浏 10485
婴 10486
恙 10487
隈 10488
麽 10489
莼 10490
御 10491
鞋 10492
禧 10493
衰 10494
潩 10495
茬 10496
瞌 10497
鸥 10498
凭 10499
咯 10500
饺 10501
耄 10502
瑟 10503
舟 10504
帚 10505
鼋 10506
嫔 10507
婄 10508
赟 10509
棼 10510
沪 10511
秃 10512
亏 10513
备 10514
压 10515
悍 10516
嚅 10517
交 10518
癔 10519
莪 10520
闻 10521
炁 10522
钻 10523
友 10524
傣 10525
糁 10526
邾 10527
窝 10528
扉 10529
鲡 10530
盛 10531
玖 10532
卫 10533
眛 10534
鸟 10535
党 10536
杼 10537
碓 10538
篚 10539
裆 10540
钟 10541
大 10542
介 10543
揩 10544
砻 10545
卅 10546
弟 10547
颛 10548
嫪 10549
代 10550
会 10551
悻 10552
者 10553
箍 10554
番 10555
疯 10556
聃 10557
瀚 10558
挥 10559
拷 10560
氡 10561
璎 10562
肪 10563
龊 10564
家 10565
挽 10566
蹭 10567
樟 10568
令 10569
饶 10570
忖 10571
娠 10572
手 10573
贷 10574
嘚 10575
莺 10576
茛 10577
宥 10578
刼 10579
傥 10580
厄 10581
洙 10582
牝 10583
林 10584
铆 10585
芥 10586
充 10587
絮 10588
陲 10589
藤 10590
贤 10591
趾 10592
孝 10593
袖 10594
章 10595
柷 10596
麹 10597
胧 10598
休 10599
籼 10600
惕 10601
泼 10602
馨 10603
町 10604
鹧 10605
咚 10606
崔 10607
嵂 10608
蝈 10609
湛 10610
报 10611
蜷 10612
削 10613
根 10614
恣 10615
郫 10616
把 10617
窕 10618
癌 10619
榘 10620
用 10621
撕 10622
蚩 10623
菰 10624
崖 10625
酐 10626
襄 10627
呤 10628
炊 10629
啸 10630
鲶 10631
嗜 10632
凹 10633
球 10634
鬓 10635
荼 10636
给 10637
亘 10638
醯 10639
鳕 10640
侄 10641
簪 10642
嘛 10643
稠 10644
氘 10645
指 10646
泆 10647
总 10648
糅 10649
膀 10650
毋 10651
蹲 10652
煅 10653
桔 10654
什 10655
浜 10656
八 10657
涧 10658
跬 10659
祷 10660
湫 10661
脸 10662
描 10663
狱 10664
赉 10665
袜 10666
馑 10667
枪 10668
娜 10669
辇 10670
颐 10671
捩 10672
峥 10673
聆 10674
善 10675
询 10676
疝 10677
坜 10678
碚 10679
缥 10680
鼯 10681
钮 10682
溥 10683
殁 10684
肮 10685
泮 10686
捐 10687
槛 10688
吆 10689
河 10690
溆 10691
度 10692
殒 10693
骕 10694
饹 10695
臜 10696
空 10697
允 10698
枉 10699
蒯 10700
趔 10701
菠 10702
仗 10703
鳄 10704
摊 10705
寝 10706
躯 10707
湝 10708
后 10709
删 10710
揪 10711
徐 10712
寒 10713
坨 10714
挣 10715
举 10716
氅 10717
臻 10718
饔 10719
丁 10720
彦 10721
泉 10722
曷 10723
衅 10724
呸 10725
狍 10726
禽 10727
薄 10728
慵 10729
幽 10730
匣 10731
炬 10732
访 10733
秒 10734
樗 10735
陶 10736
脓 10737
枰 10738
磷 10739
哕 10740
君 10741
脲 10742
灯 10743
回 10744
索 10745
邡 10746
愍 10747
薏 10748
辄 10749
珽 10750
離 10751
鬃 10752
赊 10753
枲 10754
邰 10755
颏 10756
寺 10757
抵 10758
鲅 10759
刎 10760
給 10761
戴 10762
溲 10763
袢 10764
逯 10765
封 10766
匮 10767
关 10768
尘 10769
皤 10770
鳍 10771
搏 10772
幌 10773
连 10774
杠 10775
蹋 10776
彷 10777
虺 10778
怀 10779
雏 10780
钿 10781
澄 10782
扶 10783
错 10784
樋 10785
胄 10786
薇 10787
阿 10788
墁 10789
觜 10790
利 10791
羟 10792
杀 10793
淋 10794
蓁 10795
腧 10796
钊 10797
胸 10798
艽 10799
撞 10800
虑 10801
飗 10802
门 10803
玦 10804
琪 10805
煸 10806
酵 10807
净 10808
撅 10809
頠 10810
犄 10811
厉 10812
斗 10813
层 10814
玫 10815
潘 10816
骐 10817
臃 10818
谮 10819
殃 10820
厌 10821
摄 10822
磾 10823
络 10824
囱 10825
眯 10826
忽 10827
壸 10828
咐 10829
搁 10830
肤 10831
魇 10832
芬 10833
拉 10834
纮 10835
楣 10836
蔬 10837
寄 10838
妯 10839
教 10840
俪 10841
碛 10842
互 10843
奈 10844
憎 10845
炉 10846
蹰 10847
聂 10848
员 10849
呶 10850
瞬 10851
恿 10852
阙 10853
卡 10854
禾 10855
椴 10856
帀 10857
醵 10858
帝 10859
隔 10860
忒 10861
哑 10862
効 10863
鼱 10864
塽 10865
苴 10866
健 10867
醅 10868
新 10869
程 10870
茗 10871
琰 10872
几 10873
揍 10874
匍 10875
砣 10876
禳 10877
罗 10878
勿 10879
框 10880
析 10881
沢 10882
偷 10883
繁 10884
嗣 10885
呵 10886
念 10887
曩 10888
狼 10889
倔 10890
威 10891
潭 10892
踯 10893
晁 10894
吩 10895
袅 10896
喀 10897
洌 10898
炯 10899
纸 10900
抽 10901
簧 10902
买 10903
吖 10904
梓 10905
烃 10906
荃 10907
housings 10908
adjectives 10909
swell 10910
desires 10911
hips 10912
signs 10913
cheater 10914
commissions 10915
adherence 10916
arch 10917
dynamometers 10918
intelligences 10919
misses 10920
manifests 10921
engineers 10922
tubing 10923
chokes 10924
jacks 10925
windows 10926
fireplugs 10927
connections 10928
heap 10929
completions 10930
mirror 10931
bunk 10932
basement 10933
lap 10934
strobe 10935
clubs 10936
velocities 10937
panels 10938
linens 10939
forearms 10940
purchasers 10941
certification 10942
cautions 10943
slides 10944
bench 10945
ceilings 10946
fifties 10947
receiver 10948
angle 10949
possibility 10950
platter 10951
bulb 10952
ambiguity 10953
drips 10954
inspections 10955
knot 10956
splice 10957
silk 10958
leakages 10959
groceries 10960
dives 10961
chairmen 10962
seam 10963
acid 10964
requests 10965
subroutine 10966
joints 10967
reel 10968
tongue 10969
microphone 10970
machinery 10971
devices 10972
perforator 10973
weldings 10974
nameplate 10975
recombinations 10976
squeak 10977
seawater 10978
differences 10979
winters 10980
colon 10981
counselor 10982
builders 10983
dots 10984
jacket 10985
aircraft 10986
expansions 10987
wrists 10988
tissues 10989
hyphen 10990
yards 10991
hillside 10992
hems 10993
knobs 10994
speeches 10995
accuracy 10996
workloads 10997
cylinder 10998
arches 10999
stations 11000
hashmarks 11001
marbles 11002
legging 11003
compromise 11004
sewers 11005
gardens 11006
defeats 11007
thumb 11008
delay 11009
fans 11010
chiefs 11011
puddles 11012
dresses 11013
contracts 11014
polices 11015
bather 11016
distribution 11017
motions 11018
shocks 11019
subdivisions 11020
freights 11021
welds 11022
warranties 11023
fears 11024
attribute 11025
organ 11026
cardboard 11027
ballast 11028
organs 11029
toolbox 11030
arrays 11031
sewage 11032
identification 11033
kits 11034
sirs 11035
male 11036
belts 11037
methodology 11038
apples 11039
struts 11040
slot 11041
hierarchies 11042
nations 11043
tilling 11044
riding 11045
polls 11046
cannons 11047
strut 11048
fourths 11049
validation 11050
discount 11051
milks 11052
compensations 11053
permission 11054
multiplication 11055
seams 11056
phases 11057
valve 11058
chaplain 11059
tails 11060
explosions 11061
skirt 11062
icing 11063
limp 11064
cruise 11065
stamps 11066
clouds 11067
fifths 11068
attachment 11069
moss 11070
batch 11071
bureaus 11072
tents 11073
oscillator 11074
missile 11075
pedal 11076
respirations 11077
revisions 11078
knocks 11079
dealers 11080
deployments 11081
trick 11082
occasion 11083
tips 11084
dabs 11085
february 11086
courses 11087
recapitulations 11088
taxes 11089
insanities 11090
advancement 11091
quartermaster 11092
pipe 11093
vomit 11094
patrol 11095
cushion 11096
distributors 11097
overlay 11098
sponge 11099
spoons 11100
plead 11101
counsels 11102
distributor 11103
plating 11104
translators 11105
traffic 11106
washtub 11107
piston 11108
situations 11109
lifeboat 11110
inclinations 11111
sheds 11112
indication 11113
rib 11114
noses 11115
mats 11116
modules 11117
explosion 11118
maintenance 11119
positions 11120
frigate 11121
canyons 11122
billet 11123
opposites 11124
misfit 11125
topping 11126
slopes 11127
riddle 11128
boards 11129
pail 11130
thirties 11131
horn 11132
objective 11133
bone 11134
morals 11135
cells 11136
interval 11137
particles 11138
chemistry 11139
vents 11140
pits 11141
measurements 11142
vessels 11143
grounds 11144
peacetime 11145
print 11146
rams 11147
receipts 11148
ax 11149
arrangements 11150
vines 11151
presses 11152
regrets 11153
sweeps 11154
butter 11155
terminologies 11156
outboards 11157
fleet 11158
retrievals 11159
gums 11160
triggers 11161
decoder 11162
advances 11163
gangways 11164
reconfiguration 11165
clamps 11166
acceptor 11167
gunpowder 11168
autos 11169
hints 11170
daybreak 11171
injury 11172
abettor 11173
attributes 11174
runouts 11175
shock 11176
hygiene 11177
functions 11178
vibration 11179
abbreviation 11180
seesaw 11181
suit 11182
latch 11183
flanges 11184
tuition 11185
menus 11186
stroke 11187
punches 11188
blot 11189
biases 11190
porters 11191
stalls 11192
analyzer 11193
deals 11194
maples 11195
sailors 11196
digits 11197
yields 11198
churn 11199
prisons 11200
clocks 11201
fold 11202
index 11203
dab 11204
accesses 11205
throttle 11206
flashlight 11207
shipmate 11208
rakes 11209
sole 11210
manpower 11211
hoods 11212
visions 11213
updates 11214
extension 11215
chamber 11216
mercury 11217
engine 11218
summary 11219
waist 11220
jails 11221
adjustment 11222
pints 11223
desertions 11224
frames 11225
fatigues 11226
braces 11227
whirl 11228
flights 11229
kilometers 11230
steam 11231
fracture 11232
lakes 11233
assignment 11234
zones 11235
shoulders 11236
waxes 11237
swims 11238
metal 11239
verification 11240
requirement 11241
magazine 11242
deployment 11243
pencils 11244
passivations 11245
jaw 11246
mist 11247
fountain 11248
loans 11249
atom 11250
escapes 11251
thirds 11252
fog 11253
weld 11254
masks 11255
bulbs 11256
howls 11257
expansion 11258
bailing 11259
muscle 11260
rack 11261
sponsors 11262
paragraph 11263
fuses 11264
comfort 11265
diodes 11266
rails 11267
horizon 11268
staples 11269
lamp 11270
midwatches 11271
lieutenants 11272
injector 11273
centimeter 11274
infection 11275
tabulation 11276
cracks 11277
pails 11278
relocation 11279
twists 11280
halves 11281
dedications 11282
principals 11283
parameter 11284
flag 11285
itinerary 11286
contributions 11287
doorknobs 11288
slinging 11289
starboard 11290
electronics 11291
weaves 11292
trusts 11293
counselors 11294
stitch 11295
reservist 11296
splitters 11297
brooms 11298
prisms 11299
motel 11300
parachutes 11301
wrecks 11302
cheeks 11303
violation 11304
searchlight 11305
drums 11306
dependents 11307
circumference 11308
sonar 11309
shores 11310
scales 11311
reserves 11312
manners 11313
emitters 11314
hauls 11315
tomorrows 11316
blueprint 11317
affairs 11318
originators 11319
photodiodes 11320
seat 11321
depositions 11322
breaks 11323
transit 11324
cosals 11325
shapes 11326
pronouns 11327
associates 11328
capitals 11329
impedance 11330
polishes 11331
operator 11332
crusts 11333
annex 11334
partition 11335
winding 11336
deaths 11337
jugs 11338
gaskets 11339
stores 11340
logistics 11341
fruits 11342
concentration 11343
broom 11344
bites 11345
careers 11346
flame 11347
offices 11348
runout 11349
releases 11350
heights 11351
crowns 11352
utility 11353
packs 11354
stationery 11355
auditor 11356
expense 11357
interpreters 11358
chaplains 11359
silence 11360
armor 11361
beat 11362
oaks 11363
carloads 11364
jewel 11365
breast 11366
seasons 11367
trim 11368
disposal 11369
observers 11370
misfits 11371
pipes 11372
investigators 11373
gallows 11374
badges 11375
finger 11376
mix 11377
insignia 11378
hoops 11379
scope 11380
introductions 11381
bulk 11382
allowance 11383
interaction 11384
patterns 11385
confessions 11386
puffs 11387
ribbons 11388
automation 11389
dozens 11390
servant 11391
readiness 11392
wafers 11393
cockpits 11394
electrodes 11395
demonstration 11396
mists 11397
cranks 11398
trackers 11399
crystal 11400
stares 11401
commendation 11402
gunnery 11403
energizer 11404
hull 11405
longitude 11406
lender 11407
analogs 11408
tricks 11409
waves 11410
voucher 11411
interviewers 11412
shots 11413
extensions 11414
ponds 11415
sod 11416
admirals 11417
distributions 11418
nerve 11419
preservation 11420
intents 11421
tendencies 11422
radius 11423
housefall 11424
characteristic 11425
fences 11426
brakes 11427
whips 11428
flowers 11429
cap 11430
barrier 11431
toothpicks 11432
cosal 11433
sum 11434
transiting 11435
sections 11436
wire 11437
decorations 11438
tenders 11439
sunshine 11440
gages 11441
weeds 11442
tray 11443
apparatuses 11444
alignment 11445
auto 11446
deserters 11447
hoses 11448
commands 11449
guards 11450
proposes 11451
intakes 11452
cakes 11453
paints 11454
antennas 11455
lint 11456
lanes 11457
humidity 11458
grasps 11459
refurbishment 11460
interrelation 11461
classifications 11462
directions 11463
disadvantage 11464
muscles 11465
influences 11466
budgets 11467
credibility 11468
precision 11469
documents 11470
tears 11471
execution 11472
yells 11473
interests 11474
arraignment 11475
intensities 11476
pecks 11477
confession 11478
jumper 11479
brick 11480
painters 11481
attackers 11482
accrual 11483
cuff 11484
highway 11485
pastes 11486
quiets 11487
sewer 11488
rocket 11489
processors 11490
alerts 11491
tensions 11492
bowl 11493
defaults 11494
audits 11495
rehabilitation 11496
lookouts 11497
choices 11498
insanity 11499
multitasks 11500
enemies 11501
scopes 11502
hate 11503
compartments 11504
tops 11505
subsystem 11506
relationships 11507
fastener 11508
courtesies 11509
buckles 11510
diagnoses 11511
listings 11512
drags 11513
register 11514
inventory 11515
sexes 11516
consequences 11517
tens 11518
skins 11519
daughters 11520
pitch 11521
compressions 11522
ranks 11523
hangars 11524
documentation 11525
diagrams 11526
seaman 11527
augmentations 11528
carload 11529
computations 11530
hut 11531
extenuation 11532
molecule 11533
swamps 11534
typewriters 11535
keel 11536
target 11537
null 11538
depths 11539
environments 11540
deflectors 11541
strobes 11542
surprises 11543
interactions 11544
anchor 11545
volt 11546
rebound 11547
steams 11548
horns 11549
executives 11550
surveys 11551
grasp 11552
behavior 11553
destroyers 11554
squadron 11555
accumulation 11556
appeal 11557
suggestions 11558
ampere 11559
theories 11560
apprenticeships 11561
receipt 11562
pane 11563
circuitry 11564
miner 11565
symptom 11566
facepiece 11567
tooth 11568
farads 11569
strands 11570
dares 11571
directories 11572
dynamics 11573
alibi 11574
aprons 11575
drawings 11576
enclosures 11577
closure 11578
lanterns 11579
marines 11580
weddings 11581
contribution 11582
streaks 11583
reward 11584
coordinators 11585
legs 11586
stools 11587
rims 11588
quart 11589
thursdays 11590
ray 11591
grains 11592
dollies 11593
harness 11594
preferences 11595
tabs 11596
executive 11597
dust 11598
subjects 11599
tub 11600
preparations 11601
roots 11602
breaths 11603
extenuations 11604
lookout 11605
synthetics 11606
nulls 11607
pointers 11608
catch 11609
kite 11610
spool 11611
thread 11612
suspect 11613
cathodes 11614
approaches 11615
brushes 11616
outfit 11617
firefighting 11618
leather 11619
survivals 11620
pound 11621
integer 11622
designation 11623
hiss 11624
assembly 11625
grips 11626
radiuses 11627
mechanism 11628
wine 11629
clips 11630
mop 11631
blocks 11632
yolk 11633
discontinuations 11634
suits 11635
embosses 11636
menu 11637
workload 11638
kill 11639
warfare 11640
alternations 11641
disaster 11642
dusts 11643
implement 11644
freeze 11645
addressee 11646
subroutines 11647
chill 11648
deputies 11649
recipient 11650
writers 11651
lieutenant 11652
recovery 11653
contrast 11654
axes 11655
vacuums 11656
handler 11657
minimum 11658
tractor 11659
tower 11660
peck 11661
precaution 11662
dart 11663
governments 11664
"principle" 11665
